node {
  name: "train_attr/min_nbor_dist"
  op: "Const"
  attr {
    key: "dtype"
    value {
      type: DT_DOUBLE
    }
  }
  attr {
    key: "value"
    value {
      tensor {
        dtype: DT_DOUBLE
        tensor_shape {
        }
        double_val: 0.8543231368574147
      }
    }
  }
}
node {
  name: "train_attr/training_script"
  op: "Const"
  attr {
    key: "dtype"
    value {
      type: DT_STRING
    }
  }
  attr {
    key: "value"
    value {
      tensor {
        dtype: DT_STRING
        tensor_shape {
        }
        string_val: "{\"model\":{\"type_map\":[\"O\",\"H\"],\"descriptor\":{\"type\":\"se_e2_a\",\"sel\":[46,92],\"rcut_smth\":0.5,\"rcut\":6.0,\"neuron\":[2,5,10],\"resnet_dt\":false,\"axis_neuron\":8,\"seed\":1,\"activation_function\":\"tanh\",\"type_one_side\":false,\"precision\":\"default\",\"trainable\":true,\"exclude_types\":[],\"set_davg_zero\":false},\"fitting_net\":{\"type\":\"dipole\",\"sel_type\":[0],\"neuron\":[10,10,10],\"resnet_dt\":true,\"seed\":1,\"activation_function\":\"tanh\",\"precision\":\"default\"},\"data_stat_nbatch\":10,\"data_stat_protect\":0.01,\"data_bias_nsample\":10},\"learning_rate\":{\"type\":\"exp\",\"start_lr\":0.01,\"stop_lr\":3.5e-07,\"decay_steps\":5000,\"scale_by_worker\":\"linear\"},\"loss\":{\"type\":\"tensor\",\"pref\":0.0,\"pref_atomic\":1.0},\"training\":{\"training_data\":{\"systems\":[\"../data/dpgen.lowd.merged/iter.000016/02.fp/data.012\",\"../data/dpgen.lowd.merged/iter.000016/02.fp/data.016\",\"../data/dpgen.lowd.merged/iter.000016/02.fp/data.020\",\"../data/dpgen.merged/init/00.liq/state.0300.1.00e00.00/vasp/data\",\"../data/dpgen.merged/init/00.liq/state.0400.1.00e04.00/vasp/data\",\"../data/dpgen.merged/init/01.liq/state.0300.1.00e00.00/vasp/data\",\"../data/dpgen.merged/init/01.liq/state.0400.1.00e04.00/vasp/data\",\"../data/dpgen.merged/iter.000000/02.fp/data.000\",\"../data/dpgen.merged/iter.000001/02.fp/data.001\",\"../data/dpgen.merged/iter.000002/02.fp/data.002\",\"../data/dpgen.merged/iter.000005/02.fp/data.001\",\"../data/dpgen.merged/iter.000008/02.fp/data.004\",\"../data/dpgen.merged/iter.000009/02.fp/data.005\",\"../data/dpgen.merged/iter.000010/02.fp/data.006\"],\"set_prefix\":\"set\",\"batch_size\":\"auto\",\"auto_prob\":\"prob_sys_size\",\"sys_probs\":null},\"numb_steps\":1,\"disp_file\":\"lcurve.out\",\"disp_freq\":1,\"save_freq\":1,\"save_ckpt\":\"model.ckpt\",\"disp_training\":true,\"time_training\":true,\"validation_data\":null,\"profiling\":false,\"profiling_file\":\"timeline.json\",\"enable_profiler\":false,\"tensorboard\":false,\"tensorboard_log_dir\":\"log\",\"tensorboard_freq\":1}}"
      }
    }
  }
}
node {
  name: "model_type"
  op: "Const"
  attr {
    key: "dtype"
    value {
      type: DT_STRING
    }
  }
  attr {
    key: "value"
    value {
      tensor {
        dtype: DT_STRING
        tensor_shape {
        }
        string_val: "original_model"
      }
    }
  }
}
node {
  name: "t_box"
  op: "Placeholder"
  attr {
    key: "dtype"
    value {
      type: DT_DOUBLE
    }
  }
  attr {
    key: "shape"
    value {
      shape {
        dim {
          size: -1
        }
      }
    }
  }
}
node {
  name: "t_coord"
  op: "Placeholder"
  attr {
    key: "dtype"
    value {
      type: DT_DOUBLE
    }
  }
  attr {
    key: "shape"
    value {
      shape {
        dim {
          size: -1
        }
      }
    }
  }
}
node {
  name: "t_type"
  op: "Placeholder"
  attr {
    key: "dtype"
    value {
      type: DT_INT32
    }
  }
  attr {
    key: "shape"
    value {
      shape {
        dim {
          size: -1
        }
      }
    }
  }
}
node {
  name: "t_natoms"
  op: "Placeholder"
  attr {
    key: "dtype"
    value {
      type: DT_INT32
    }
  }
  attr {
    key: "shape"
    value {
      shape {
        dim {
          size: 4
        }
      }
    }
  }
}
node {
  name: "t_mesh"
  op: "Placeholder"
  attr {
    key: "dtype"
    value {
      type: DT_INT32
    }
  }
  attr {
    key: "shape"
    value {
      shape {
        dim {
          size: -1
        }
      }
    }
  }
}
node {
  name: "model_attr/tmap"
  op: "Const"
  attr {
    key: "dtype"
    value {
      type: DT_STRING
    }
  }
  attr {
    key: "value"
    value {
      tensor {
        dtype: DT_STRING
        tensor_shape {
        }
        string_val: "O H"
      }
    }
  }
}
node {
  name: "model_attr/sel_type"
  op: "Const"
  attr {
    key: "dtype"
    value {
      type: DT_INT32
    }
  }
  attr {
    key: "value"
    value {
      tensor {
        dtype: DT_INT32
        tensor_shape {
          dim {
            size: 1
          }
        }
        int_val: 0
      }
    }
  }
}
node {
  name: "model_attr/model_type"
  op: "Const"
  attr {
    key: "dtype"
    value {
      type: DT_STRING
    }
  }
  attr {
    key: "value"
    value {
      tensor {
        dtype: DT_STRING
        tensor_shape {
        }
        string_val: "dipole"
      }
    }
  }
}
node {
  name: "model_attr/model_version"
  op: "Const"
  attr {
    key: "dtype"
    value {
      type: DT_STRING
    }
  }
  attr {
    key: "value"
    value {
      tensor {
        dtype: DT_STRING
        tensor_shape {
        }
        string_val: "1.1"
      }
    }
  }
}
node {
  name: "model_attr/output_dim"
  op: "Const"
  attr {
    key: "dtype"
    value {
      type: DT_INT32
    }
  }
  attr {
    key: "value"
    value {
      tensor {
        dtype: DT_INT32
        tensor_shape {
        }
        int_val: 3
      }
    }
  }
}
node {
  name: "strided_slice/stack"
  op: "Const"
  attr {
    key: "dtype"
    value {
      type: DT_INT32
    }
  }
  attr {
    key: "value"
    value {
      tensor {
        dtype: DT_INT32
        tensor_shape {
          dim {
            size: 1
          }
        }
        int_val: 2
      }
    }
  }
}
node {
  name: "strided_slice/stack_1"
  op: "Const"
  attr {
    key: "dtype"
    value {
      type: DT_INT32
    }
  }
  attr {
    key: "value"
    value {
      tensor {
        dtype: DT_INT32
        tensor_shape {
          dim {
            size: 1
          }
        }
        int_val: 3
      }
    }
  }
}
node {
  name: "strided_slice/stack_2"
  op: "Const"
  attr {
    key: "dtype"
    value {
      type: DT_INT32
    }
  }
  attr {
    key: "value"
    value {
      tensor {
        dtype: DT_INT32
        tensor_shape {
          dim {
            size: 1
          }
        }
        int_val: 1
      }
    }
  }
}
node {
  name: "strided_slice"
  op: "StridedSlice"
  input: "t_natoms"
  input: "strided_slice/stack"
  input: "strided_slice/stack_1"
  input: "strided_slice/stack_2"
  attr {
    key: "Index"
    value {
      type: DT_INT32
    }
  }
  attr {
    key: "T"
    value {
      type: DT_INT32
    }
  }
  attr {
    key: "begin_mask"
    value {
      i: 0
    }
  }
  attr {
    key: "ellipsis_mask"
    value {
      i: 0
    }
  }
  attr {
    key: "end_mask"
    value {
      i: 0
    }
  }
  attr {
    key: "new_axis_mask"
    value {
      i: 0
    }
  }
  attr {
    key: "shrink_axis_mask"
    value {
      i: 1
    }
  }
}
node {
  name: "add/x"
  op: "Const"
  attr {
    key: "dtype"
    value {
      type: DT_INT32
    }
  }
  attr {
    key: "value"
    value {
      tensor {
        dtype: DT_INT32
        tensor_shape {
        }
        int_val: 0
      }
    }
  }
}
node {
  name: "add"
  op: "AddV2"
  input: "add/x"
  input: "strided_slice"
  attr {
    key: "T"
    value {
      type: DT_INT32
    }
  }
}
node {
  name: "strided_slice_1/stack"
  op: "Const"
  attr {
    key: "dtype"
    value {
      type: DT_INT32
    }
  }
  attr {
    key: "value"
    value {
      tensor {
        dtype: DT_INT32
        tensor_shape {
          dim {
            size: 1
          }
        }
        int_val: 1
      }
    }
  }
}
node {
  name: "strided_slice_1/stack_1"
  op: "Const"
  attr {
    key: "dtype"
    value {
      type: DT_INT32
    }
  }
  attr {
    key: "value"
    value {
      tensor {
        dtype: DT_INT32
        tensor_shape {
          dim {
            size: 1
          }
        }
        int_val: 2
      }
    }
  }
}
node {
  name: "strided_slice_1/stack_2"
  op: "Const"
  attr {
    key: "dtype"
    value {
      type: DT_INT32
    }
  }
  attr {
    key: "value"
    value {
      tensor {
        dtype: DT_INT32
        tensor_shape {
          dim {
            size: 1
          }
        }
        int_val: 1
      }
    }
  }
}
node {
  name: "strided_slice_1"
  op: "StridedSlice"
  input: "t_natoms"
  input: "strided_slice_1/stack"
  input: "strided_slice_1/stack_1"
  input: "strided_slice_1/stack_2"
  attr {
    key: "Index"
    value {
      type: DT_INT32
    }
  }
  attr {
    key: "T"
    value {
      type: DT_INT32
    }
  }
  attr {
    key: "begin_mask"
    value {
      i: 0
    }
  }
  attr {
    key: "ellipsis_mask"
    value {
      i: 0
    }
  }
  attr {
    key: "end_mask"
    value {
      i: 0
    }
  }
  attr {
    key: "new_axis_mask"
    value {
      i: 0
    }
  }
  attr {
    key: "shrink_axis_mask"
    value {
      i: 1
    }
  }
}
node {
  name: "mul/y"
  op: "Const"
  attr {
    key: "dtype"
    value {
      type: DT_INT32
    }
  }
  attr {
    key: "value"
    value {
      tensor {
        dtype: DT_INT32
        tensor_shape {
        }
        int_val: 3
      }
    }
  }
}
node {
  name: "mul"
  op: "Mul"
  input: "strided_slice_1"
  input: "mul/y"
  attr {
    key: "T"
    value {
      type: DT_INT32
    }
  }
}
node {
  name: "Reshape/shape/0"
  op: "Const"
  attr {
    key: "dtype"
    value {
      type: DT_INT32
    }
  }
  attr {
    key: "value"
    value {
      tensor {
        dtype: DT_INT32
        tensor_shape {
        }
        int_val: -1
      }
    }
  }
}
node {
  name: "Reshape/shape"
  op: "Pack"
  input: "Reshape/shape/0"
  input: "mul"
  attr {
    key: "N"
    value {
      i: 2
    }
  }
  attr {
    key: "T"
    value {
      type: DT_INT32
    }
  }
  attr {
    key: "axis"
    value {
      i: 0
    }
  }
}
node {
  name: "Reshape"
  op: "Reshape"
  input: "t_coord"
  input: "Reshape/shape"
  attr {
    key: "T"
    value {
      type: DT_DOUBLE
    }
  }
  attr {
    key: "Tshape"
    value {
      type: DT_INT32
    }
  }
}
node {
  name: "strided_slice_2/stack"
  op: "Const"
  attr {
    key: "dtype"
    value {
      type: DT_INT32
    }
  }
  attr {
    key: "value"
    value {
      tensor {
        dtype: DT_INT32
        tensor_shape {
          dim {
            size: 1
          }
        }
        int_val: 1
      }
    }
  }
}
node {
  name: "strided_slice_2/stack_1"
  op: "Const"
  attr {
    key: "dtype"
    value {
      type: DT_INT32
    }
  }
  attr {
    key: "value"
    value {
      tensor {
        dtype: DT_INT32
        tensor_shape {
          dim {
            size: 1
          }
        }
        int_val: 2
      }
    }
  }
}
node {
  name: "strided_slice_2/stack_2"
  op: "Const"
  attr {
    key: "dtype"
    value {
      type: DT_INT32
    }
  }
  attr {
    key: "value"
    value {
      tensor {
        dtype: DT_INT32
        tensor_shape {
          dim {
            size: 1
          }
        }
        int_val: 1
      }
    }
  }
}
node {
  name: "strided_slice_2"
  op: "StridedSlice"
  input: "t_natoms"
  input: "strided_slice_2/stack"
  input: "strided_slice_2/stack_1"
  input: "strided_slice_2/stack_2"
  attr {
    key: "Index"
    value {
      type: DT_INT32
    }
  }
  attr {
    key: "T"
    value {
      type: DT_INT32
    }
  }
  attr {
    key: "begin_mask"
    value {
      i: 0
    }
  }
  attr {
    key: "ellipsis_mask"
    value {
      i: 0
    }
  }
  attr {
    key: "end_mask"
    value {
      i: 0
    }
  }
  attr {
    key: "new_axis_mask"
    value {
      i: 0
    }
  }
  attr {
    key: "shrink_axis_mask"
    value {
      i: 1
    }
  }
}
node {
  name: "Reshape_1/shape/0"
  op: "Const"
  attr {
    key: "dtype"
    value {
      type: DT_INT32
    }
  }
  attr {
    key: "value"
    value {
      tensor {
        dtype: DT_INT32
        tensor_shape {
        }
        int_val: -1
      }
    }
  }
}
node {
  name: "Reshape_1/shape"
  op: "Pack"
  input: "Reshape_1/shape/0"
  input: "strided_slice_2"
  attr {
    key: "N"
    value {
      i: 2
    }
  }
  attr {
    key: "T"
    value {
      type: DT_INT32
    }
  }
  attr {
    key: "axis"
    value {
      i: 0
    }
  }
}
node {
  name: "Reshape_1"
  op: "Reshape"
  input: "t_type"
  input: "Reshape_1/shape"
  attr {
    key: "T"
    value {
      type: DT_INT32
    }
  }
  attr {
    key: "Tshape"
    value {
      type: DT_INT32
    }
  }
}
node {
  name: "descrpt_attr/rcut"
  op: "Const"
  attr {
    key: "dtype"
    value {
      type: DT_DOUBLE
    }
  }
  attr {
    key: "value"
    value {
      tensor {
        dtype: DT_DOUBLE
        tensor_shape {
        }
        double_val: 6.0
      }
    }
  }
}
node {
  name: "descrpt_attr/ntypes"
  op: "Const"
  attr {
    key: "dtype"
    value {
      type: DT_INT32
    }
  }
  attr {
    key: "value"
    value {
      tensor {
        dtype: DT_INT32
        tensor_shape {
        }
        int_val: 2
      }
    }
  }
}
node {
  name: "descrpt_attr/ndescrpt"
  op: "Const"
  attr {
    key: "dtype"
    value {
      type: DT_INT32
    }
  }
  attr {
    key: "value"
    value {
      tensor {
        dtype: DT_INT32
        tensor_shape {
        }
        int_val: 552
      }
    }
  }
}
node {
  name: "descrpt_attr/sel"
  op: "Const"
  attr {
    key: "dtype"
    value {
      type: DT_INT32
    }
  }
  attr {
    key: "value"
    value {
      tensor {
        dtype: DT_INT32
        tensor_shape {
          dim {
            size: 2
          }
        }
        tensor_content: ".\000\000\000\\\000\000\000"
      }
    }
  }
}
node {
  name: "descrpt_attr/original_sel"
  op: "Const"
  attr {
    key: "dtype"
    value {
      type: DT_INT32
    }
  }
  attr {
    key: "value"
    value {
      tensor {
        dtype: DT_INT32
        tensor_shape {
          dim {
            size: 2
          }
        }
        tensor_content: ".\000\000\000\\\000\000\000"
      }
    }
  }
}
node {
  name: "descrpt_attr/t_avg"
  op: "Const"
  attr {
    key: "dtype"
    value {
      type: DT_DOUBLE
    }
  }
  attr {
    key: "value"
    value {
      tensor {
        dtype: DT_DOUBLE
        tensor_shape {
          dim {
            size: 2
          }
          dim {
            size: 552
          }
        }
        tensor_content: "%\204\210\024[\221\251?\000\000\000\000\000\000\000\000\000\000\000\000\000\000\000\000\000\000\000\000\000\000\000\000%\204\210\024[\221\251?\000\000\000\000\000\000\000\000\000\000\000\000\000\000\000\000\000\000\000\000\000\000\000\000%\204\210\024[\221\251?\000\000\000\000\000\000\000\000\000\000\000\000\000\000\000\000\000\000\000\000\000\000\000\000%\204\210\024[\221\251?\000\000\000\000\000\000\000\000\000\000\000\000\000\000\000\000\000\000\000\000\000\000\000\000%\204\210\024[\221\251?\000\000\000\000\000\000\000\000\000\000\000\000\000\000\000\000\000\000\000\000\000\000\000\000%\204\210\024[\221\251?\000\000\000\000\000\000\000\000\000\000\000\000\000\000\000\000\000\000\000\000\000\000\000\000%\204\210\024[\221\251?\000\000\000\000\000\000\000\000\000\000\000\000\000\000\000\000\000\000\000\000\000\000\000\000%\204\210\024[\221\251?\000\000\000\000\000\000\000\000\000\000\000\000\000\000\000\000\000\000\000\000\000\000\000\000%\204\210\024[\221\251?\000\000\000\000\000\000\000\000\000\000\000\000\000\000\000\000\000\000\000\000\000\000\000\000%\204\210\024[\221\251?\000\000\000\000\000\000\000\000\000\000\000\000\000\000\000\000\000\000\000\000\000\000\000\000%\204\210\024[\221\251?\000\000\000\000\000\000\000\000\000\000\000\000\000\000\000\000\000\000\000\000\000\000\000\000%\204\210\024[\221\251?\000\000\000\000\000\000\000\000\000\000\000\000\000\000\000\000\000\000\000\000\000\000\000\000%\204\210\024[\221\251?\000\000\000\000\000\000\000\000\000\000\000\000\000\000\000\000\000\000\000\000\000\000\000\000%\204\210\024[\221\251?\000\000\000\000\000\000\000\000\000\000\000\000\000\000\000\000\000\000\000\000\000\000\000\000%\204\210\024[\221\251?\000\000\000\000\000\000\000\000\000\000\000\000\000\000\000\000\000\000\000\000\000\000\000\000%\204\210\024[\221\251?\000\000\000\000\000\000\000\000\000\000\000\000\000\000\000\000\000\000\000\000\000\000\000\000%\204\210\024[\221\251?\000\000\000\000\000\000\000\000\000\000\000\000\000\000\000\000\000\000\000\000\000\000\000\000%\204\210\024[\221\251?\000\000\000\000\000\000\000\000\000\000\000\000\000\000\000\000\000\000\000\000\000\000\000\000%\204\210\024[\221\251?\000\000\000\000\000\000\000\000\000\000\000\000\000\000\000\000\000\000\000\000\000\000\000\000%\204\210\024[\221\251?\000\000\000\000\000\000\000\000\000\000\000\000\000\000\000\000\000\000\000\000\000\000\000\000%\204\210\024[\221\251?\000\000\000\000\000\000\000\000\000\000\000\000\000\000\000\000\000\000\000\000\000\000\000\000%\204\210\024[\221\251?\000\000\000\000\000\000\000\000\000\000\000\000\000\000\000\000\000\000\000\000\000\000\000\000%\204\210\024[\221\251?\000\000\000\000\000\000\000\000\000\000\000\000\000\000\000\000\000\000\000\000\000\000\000\000%\204\210\024[\221\251?\000\000\000\000\000\000\000\000\000\000\000\000\000\000\000\000\000\000\000\000\000\000\000\000%\204\210\024[\221\251?\000\000\000\000\000\000\000\000\000\000\000\000\000\000\000\000\000\000\000\000\000\000\000\000%\204\210\024[\221\251?\000\000\000\000\000\000\000\000\000\000\000\000\000\000\000\000\000\000\000\000\000\000\000\000%\204\210\024[\221\251?\000\000\000\000\000\000\000\000\000\000\000\000\000\000\000\000\000\000\000\000\000\000\000\000%\204\210\024[\221\251?\000\000\000\000\000\000\000\000\000\000\000\000\000\000\000\000\000\000\000\000\000\000\000\000%\204\210\024[\221\251?\000\000\000\000\000\000\000\000\000\000\000\000\000\000\000\000\000\000\000\000\000\000\000\000%\204\210\024[\221\251?\000\000\000\000\000\000\000\000\000\000\000\000\000\000\000\000\000\000\000\000\000\000\000\000%\204\210\024[\221\251?\000\000\000\000\000\000\000\000\000\000\000\000\000\000\000\000\000\000\000\000\000\000\000\000%\204\210\024[\221\251?\000\000\000\000\000\000\000\000\000\000\000\000\000\000\000\000\000\000\000\000\000\000\000\000%\204\210\024[\221\251?\000\000\000\000\000\000\000\000\000\000\000\000\000\000\000\000\000\000\000\000\000\000\000\000%\204\210\024[\221\251?\000\000\000\000\000\000\000\000\000\000\000\000\000\000\000\000\000\000\000\000\000\000\000\000%\204\210\024[\221\251?\000\000\000\000\000\000\000\000\000\000\000\000\000\000\000\000\000\000\000\000\000\000\000\000%\204\210\024[\221\251?\000\000\000\000\000\000\000\000\000\000\000\000\000\000\000\000\000\000\000\000\000\000\000\000%\204\210\024[\221\251?\000\000\000\000\000\000\000\000\000\000\000\000\000\000\000\000\000\000\000\000\000\000\000\000%\204\210\024[\221\251?\000\000\000\000\000\000\000\000\000\000\000\000\000\000\000\000\000\000\000\000\000\000\000\000%\204\210\024[\221\251?\000\000\000\000\000\000\000\000\000\000\000\000\000\000\000\000\000\000\000\000\000\000\000\000%\204\210\024[\221\251?\000\000\000\000\000\000\000\000\000\000\000\000\000\000\000\000\000\000\000\000\000\000\000\000%\204\210\024[\221\251?\000\000\000\000\000\000\000\000\000\000\000\000\000\000\000\000\000\000\000\000\000\000\000\000%\204\210\024[\221\251?\000\000\000\000\000\000\000\000\000\000\000\000\000\000\000\000\000\000\000\000\000\000\000\000%\204\210\024[\221\251?\000\000\000\000\000\000\000\000\000\000\000\000\000\000\000\000\000\000\000\000\000\000\000\000%\204\210\024[\221\251?\000\000\000\000\000\000\000\000\000\000\000\000\000\000\000\000\000\000\000\000\000\000\000\000%\204\210\024[\221\251?\000\000\000\000\000\000\000\000\000\000\000\000\000\000\000\000\000\000\000\000\000\000\000\000%\204\210\024[\221\251?\000\000\000\000\000\000\000\000\000\000\000\000\000\000\000\000\000\000\000\000\000\000\000\000%\204\210\024[\221\251?\000\000\000\000\000\000\000\000\000\000\000\000\000\000\000\000\000\000\000\000\000\000\000\000%\204\210\024[\221\251?\000\000\000\000\000\000\000\000\000\000\000\000\000\000\000\000\000\000\000\000\000\000\000\000%\204\210\024[\221\251?\000\000\000\000\000\000\000\000\000\000\000\000\000\000\000\000\000\000\000\000\000\000\000\000%\204\210\024[\221\251?\000\000\000\000\000\000\000\000\000\000\000\000\000\000\000\000\000\000\000\000\000\000\000\000%\204\210\024[\221\251?\000\000\000\000\000\000\000\000\000\000\000\000\000\000\000\000\000\000\000\000\000\000\000\000%\204\210\024[\221\251?\000\000\000\000\000\000\000\000\000\000\000\000\000\000\000\000\000\000\000\000\000\000\000\000%\204\210\024[\221\251?\000\000\000\000\000\000\000\000\000\000\000\000\000\000\000\000\000\000\000\000\000\000\000\000%\204\210\024[\221\251?\000\000\000\000\000\000\000\000\000\000\000\000\000\000\000\000\000\000\000\000\000\000\000\000%\204\210\024[\221\251?\000\000\000\000\000\000\000\000\000\000\000\000\000\000\000\000\000\000\000\000\000\000\000\000%\204\210\024[\221\251?\000\000\000\000\000\000\000\000\000\000\000\000\000\000\000\000\000\000\000\000\000\000\000\000%\204\210\024[\221\251?\000\000\000\000\000\000\000\000\000\000\000\000\000\000\000\000\000\000\000\000\000\000\000\000%\204\210\024[\221\251?\000\000\000\000\000\000\000\000\000\000\000\000\000\000\000\000\000\000\000\000\000\000\000\000%\204\210\024[\221\251?\000\000\000\000\000\000\000\000\000\000\000\000\000\000\000\000\000\000\000\000\000\000\000\000%\204\210\024[\221\251?\000\000\000\000\000\000\000\000\000\000\000\000\000\000\000\000\000\000\000\000\000\000\000\000%\204\210\024[\221\251?\000\000\000\000\000\000\000\000\000\000\000\000\000\000\000\000\000\000\000\000\000\000\000\000%\204\210\024[\221\251?\000\000\000\000\000\000\000\000\000\000\000\000\000\000\000\000\000\000\000\000\000\000\000\000%\204\210\024[\221\251?\000\000\000\000\000\000\000\000\000\000\000\000\000\000\000\000\000\000\000\000\000\000\000\000%\204\210\024[\221\251?\000\000\000\000\000\000\000\000\000\000\000\000\000\000\000\000\000\000\000\000\000\000\000\000%\204\210\024[\221\251?\000\000\000\000\000\000\000\000\000\000\000\000\000\000\000\000\000\000\000\000\000\000\000\000%\204\210\024[\221\251?\000\000\000\000\000\000\000\000\000\000\000\000\000\000\000\000\000\000\000\000\000\000\000\000%\204\210\024[\221\251?\000\000\000\000\000\000\000\000\000\000\000\000\000\000\000\000\000\000\000\000\000\000\000\000%\204\210\024[\221\251?\000\000\000\000\000\000\000\000\000\000\000\000\000\000\000\000\000\000\000\000\000\000\000\000%\204\210\024[\221\251?\000\000\000\000\000\000\000\000\000\000\000\000\000\000\000\000\000\000\000\000\000\000\000\000%\204\210\024[\221\251?\000\000\000\000\000\000\000\000\000\000\000\000\000\000\000\000\000\000\000\000\000\000\000\000%\204\210\024[\221\251?\000\000\000\000\000\000\000\000\000\000\000\000\000\000\000\000\000\000\000\000\000\000\000\000%\204\210\024[\221\251?\000\000\000\000\000\000\000\000\000\000\000\000\000\000\000\000\000\000\000\000\000\000\000\000%\204\210\024[\221\251?\000\000\000\000\000\000\000\000\000\000\000\000\000\000\000\000\000\000\000\000\000\000\000\000%\204\210\024[\221\251?\000\000\000\000\000\000\000\000\000\000\000\000\000\000\000\000\000\000\000\000\000\000\000\000%\204\210\024[\221\251?\000\000\000\000\000\000\000\000\000\000\000\000\000\000\000\000\000\000\000\000\000\000\000\000%\204\210\024[\221\251?\000\000\000\000\000\000\000\000\000\000\000\000\000\000\000\000\000\000\000\000\000\000\000\000%\204\210\024[\221\251?\000\000\000\000\000\000\000\000\000\000\000\000\000\000\000\000\000\000\000\000\000\000\000\000%\204\210\024[\221\251?\000\000\000\000\000\000\000\000\000\000\000\000\000\000\000\000\000\000\000\000\000\000\000\000%\204\210\024[\221\251?\000\000\000\000\000\000\000\000\000\000\000\000\000\000\000\000\000\000\000\000\000\000\000\000%\204\210\024[\221\251?\000\000\000\000\000\000\000\000\000\000\000\000\000\000\000\000\000\000\000\000\000\000\000\000%\204\210\024[\221\251?\000\000\000\000\000\000\000\000\000\000\000\000\000\000\000\000\000\000\000\000\000\000\000\000%\204\210\024[\221\251?\000\000\000\000\000\000\000\000\000\000\000\000\000\000\000\000\000\000\000\000\000\000\000\000%\204\210\024[\221\251?\000\000\000\000\000\000\000\000\000\000\000\000\000\000\000\000\000\000\000\000\000\000\000\000%\204\210\024[\221\251?\000\000\000\000\000\000\000\000\000\000\000\000\000\000\000\000\000\000\000\000\000\000\000\000%\204\210\024[\221\251?\000\000\000\000\000\000\000\000\000\000\000\000\000\000\000\000\000\000\000\000\000\000\000\000%\204\210\024[\221\251?\000\000\000\000\000\000\000\000\000\000\000\000\000\000\000\000\000\000\000\000\000\000\000\000%\204\210\024[\221\251?\000\000\000\000\000\000\000\000\000\000\000\000\000\000\000\000\000\000\000\000\000\000\000\000%\204\210\024[\221\251?\000\000\000\000\000\000\000\000\000\000\000\000\000\000\000\000\000\000\000\000\000\000\000\000%\204\210\024[\221\251?\000\000\000\000\000\000\000\000\000\000\000\000\000\000\000\000\000\000\000\000\000\000\000\000%\204\210\024[\221\251?\000\000\000\000\000\000\000\000\000\000\000\000\000\000\000\000\000\000\000\000\000\000\000\000%\204\210\024[\221\251?\000\000\000\000\000\000\000\000\000\000\000\000\000\000\000\000\000\000\000\000\000\000\000\000%\204\210\024[\221\251?\000\000\000\000\000\000\000\000\000\000\000\000\000\000\000\000\000\000\000\000\000\000\000\000%\204\210\024[\221\251?\000\000\000\000\000\000\000\000\000\000\000\000\000\000\000\000\000\000\000\000\000\000\000\000%\204\210\024[\221\251?\000\000\000\000\000\000\000\000\000\000\000\000\000\000\000\000\000\000\000\000\000\000\000\000%\204\210\024[\221\251?\000\000\000\000\000\000\000\000\000\000\000\000\000\000\000\000\000\000\000\000\000\000\000\000%\204\210\024[\221\251?\000\000\000\000\000\000\000\000\000\000\000\000\000\000\000\000\000\000\000\000\000\000\000\000%\204\210\024[\221\251?\000\000\000\000\000\000\000\000\000\000\000\000\000\000\000\000\000\000\000\000\000\000\000\000%\204\210\024[\221\251?\000\000\000\000\000\000\000\000\000\000\000\000\000\000\000\000\000\000\000\000\000\000\000\000%\204\210\024[\221\251?\000\000\000\000\000\000\000\000\000\000\000\000\000\000\000\000\000\000\000\000\000\000\000\000%\204\210\024[\221\251?\000\000\000\000\000\000\000\000\000\000\000\000\000\000\000\000\000\000\000\000\000\000\000\000%\204\210\024[\221\251?\000\000\000\000\000\000\000\000\000\000\000\000\000\000\000\000\000\000\000\000\000\000\000\000%\204\210\024[\221\251?\000\000\000\000\000\000\000\000\000\000\000\000\000\000\000\000\000\000\000\000\000\000\000\000%\204\210\024[\221\251?\000\000\000\000\000\000\000\000\000\000\000\000\000\000\000\000\000\000\000\000\000\000\000\000%\204\210\024[\221\251?\000\000\000\000\000\000\000\000\000\000\000\000\000\000\000\000\000\000\000\000\000\000\000\000%\204\210\024[\221\251?\000\000\000\000\000\000\000\000\000\000\000\000\000\000\000\000\000\000\000\000\000\000\000\000%\204\210\024[\221\251?\000\000\000\000\000\000\000\000\000\000\000\000\000\000\000\000\000\000\000\000\000\000\000\000%\204\210\024[\221\251?\000\000\000\000\000\000\000\000\000\000\000\000\000\000\000\000\000\000\000\000\000\000\000\000%\204\210\024[\221\251?\000\000\000\000\000\000\000\000\000\000\000\000\000\000\000\000\000\000\000\000\000\000\000\000%\204\210\024[\221\251?\000\000\000\000\000\000\000\000\000\000\000\000\000\000\000\000\000\000\000\000\000\000\000\000%\204\210\024[\221\251?\000\000\000\000\000\000\000\000\000\000\000\000\000\000\000\000\000\000\000\000\000\000\000\000%\204\210\024[\221\251?\000\000\000\000\000\000\000\000\000\000\000\000\000\000\000\000\000\000\000\000\000\000\000\000%\204\210\024[\221\251?\000\000\000\000\000\000\000\000\000\000\000\000\000\000\000\000\000\000\000\000\000\000\000\000%\204\210\024[\221\251?\000\000\000\000\000\000\000\000\000\000\000\000\000\000\000\000\000\000\000\000\000\000\000\000%\204\210\024[\221\251?\000\000\000\000\000\000\000\000\000\000\000\000\000\000\000\000\000\000\000\000\000\000\000\000%\204\210\024[\221\251?\000\000\000\000\000\000\000\000\000\000\000\000\000\000\000\000\000\000\000\000\000\000\000\000%\204\210\024[\221\251?\000\000\000\000\000\000\000\000\000\000\000\000\000\000\000\000\000\000\000\000\000\000\000\000%\204\210\024[\221\251?\000\000\000\000\000\000\000\000\000\000\000\000\000\000\000\000\000\000\000\000\000\000\000\000%\204\210\024[\221\251?\000\000\000\000\000\000\000\000\000\000\000\000\000\000\000\000\000\000\000\000\000\000\000\000%\204\210\024[\221\251?\000\000\000\000\000\000\000\000\000\000\000\000\000\000\000\000\000\000\000\000\000\000\000\000%\204\210\024[\221\251?\000\000\000\000\000\000\000\000\000\000\000\000\000\000\000\000\000\000\000\000\000\000\000\000%\204\210\024[\221\251?\000\000\000\000\000\000\000\000\000\000\000\000\000\000\000\000\000\000\000\000\000\000\000\000%\204\210\024[\221\251?\000\000\000\000\000\000\000\000\000\000\000\000\000\000\000\000\000\000\000\000\000\000\000\000%\204\210\024[\221\251?\000\000\000\000\000\000\000\000\000\000\000\000\000\000\000\000\000\000\000\000\000\000\000\000%\204\210\024[\221\251?\000\000\000\000\000\000\000\000\000\000\000\000\000\000\000\000\000\000\000\000\000\000\000\000%\204\210\024[\221\251?\000\000\000\000\000\000\000\000\000\000\000\000\000\000\000\000\000\000\000\000\000\000\000\000%\204\210\024[\221\251?\000\000\000\000\000\000\000\000\000\000\000\000\000\000\000\000\000\000\000\000\000\000\000\000%\204\210\024[\221\251?\000\000\000\000\000\000\000\000\000\000\000\000\000\000\000\000\000\000\000\000\000\000\000\000%\204\210\024[\221\251?\000\000\000\000\000\000\000\000\000\000\000\000\000\000\000\000\000\000\000\000\000\000\000\000%\204\210\024[\221\251?\000\000\000\000\000\000\000\000\000\000\000\000\000\000\000\000\000\000\000\000\000\000\000\000%\204\210\024[\221\251?\000\000\000\000\000\000\000\000\000\000\000\000\000\000\000\000\000\000\000\000\000\000\000\000%\204\210\024[\221\251?\000\000\000\000\000\000\000\000\000\000\000\000\000\000\000\000\000\000\000\000\000\000\000\000%\204\210\024[\221\251?\000\000\000\000\000\000\000\000\000\000\000\000\000\000\000\000\000\000\000\000\000\000\000\000%\204\210\024[\221\251?\000\000\000\000\000\000\000\000\000\000\000\000\000\000\000\000\000\000\000\000\000\000\000\000%\204\210\024[\221\251?\000\000\000\000\000\000\000\000\000\000\000\000\000\000\000\000\000\000\000\000\000\000\000\000%\204\210\024[\221\251?\000\000\000\000\000\000\000\000\000\000\000\000\000\000\000\000\000\000\000\000\000\000\000\000%\204\210\024[\221\251?\000\000\000\000\000\000\000\000\000\000\000\000\000\000\000\000\000\000\000\000\000\000\000\000%\204\210\024[\221\251?\000\000\000\000\000\000\000\000\000\000\000\000\000\000\000\000\000\000\000\000\000\000\000\000%\204\210\024[\221\251?\000\000\000\000\000\000\000\000\000\000\000\000\000\000\000\000\000\000\000\000\000\000\000\000\327\314\340$\022l\250?\000\000\000\000\000\000\000\000\000\000\000\000\000\000\000\000\000\000\000\000\000\000\000\000\327\314\340$\022l\250?\000\000\000\000\000\000\000\000\000\000\000\000\000\000\000\000\000\000\000\000\000\000\000\000\327\314\340$\022l\250?\000\000\000\000\000\000\000\000\000\000\000\000\000\000\000\000\000\000\000\000\000\000\000\000\327\314\340$\022l\250?\000\000\000\000\000\000\000\000\000\000\000\000\000\000\000\000\000\000\000\000\000\000\000\000\327\314\340$\022l\250?\000\000\000\000\000\000\000\000\000\000\000\000\000\000\000\000\000\000\000\000\000\000\000\000\327\314\340$\022l\250?\000\000\000\000\000\000\000\000\000\000\000\000\000\000\000\000\000\000\000\000\000\000\000\000\327\314\340$\022l\250?\000\000\000\000\000\000\000\000\000\000\000\000\000\000\000\000\000\000\000\000\000\000\000\000\327\314\340$\022l\250?\000\000\000\000\000\000\000\000\000\000\000\000\000\000\000\000\000\000\000\000\000\000\000\000\327\314\340$\022l\250?\000\000\000\000\000\000\000\000\000\000\000\000\000\000\000\000\000\000\000\000\000\000\000\000\327\314\340$\022l\250?\000\000\000\000\000\000\000\000\000\000\000\000\000\000\000\000\000\000\000\000\000\000\000\000\327\314\340$\022l\250?\000\000\000\000\000\000\000\000\000\000\000\000\000\000\000\000\000\000\000\000\000\000\000\000\327\314\340$\022l\250?\000\000\000\000\000\000\000\000\000\000\000\000\000\000\000\000\000\000\000\000\000\000\000\000\327\314\340$\022l\250?\000\000\000\000\000\000\000\000\000\000\000\000\000\000\000\000\000\000\000\000\000\000\000\000\327\314\340$\022l\250?\000\000\000\000\000\000\000\000\000\000\000\000\000\000\000\000\000\000\000\000\000\000\000\000\327\314\340$\022l\250?\000\000\000\000\000\000\000\000\000\000\000\000\000\000\000\000\000\000\000\000\000\000\000\000\327\314\340$\022l\250?\000\000\000\000\000\000\000\000\000\000\000\000\000\000\000\000\000\000\000\000\000\000\000\000\327\314\340$\022l\250?\000\000\000\000\000\000\000\000\000\000\000\000\000\000\000\000\000\000\000\000\000\000\000\000\327\314\340$\022l\250?\000\000\000\000\000\000\000\000\000\000\000\000\000\000\000\000\000\000\000\000\000\000\000\000\327\314\340$\022l\250?\000\000\000\000\000\000\000\000\000\000\000\000\000\000\000\000\000\000\000\000\000\000\000\000\327\314\340$\022l\250?\000\000\000\000\000\000\000\000\000\000\000\000\000\000\000\000\000\000\000\000\000\000\000\000\327\314\340$\022l\250?\000\000\000\000\000\000\000\000\000\000\000\000\000\000\000\000\000\000\000\000\000\000\000\000\327\314\340$\022l\250?\000\000\000\000\000\000\000\000\000\000\000\000\000\000\000\000\000\000\000\000\000\000\000\000\327\314\340$\022l\250?\000\000\000\000\000\000\000\000\000\000\000\000\000\000\000\000\000\000\000\000\000\000\000\000\327\314\340$\022l\250?\000\000\000\000\000\000\000\000\000\000\000\000\000\000\000\000\000\000\000\000\000\000\000\000\327\314\340$\022l\250?\000\000\000\000\000\000\000\000\000\000\000\000\000\000\000\000\000\000\000\000\000\000\000\000\327\314\340$\022l\250?\000\000\000\000\000\000\000\000\000\000\000\000\000\000\000\000\000\000\000\000\000\000\000\000\327\314\340$\022l\250?\000\000\000\000\000\000\000\000\000\000\000\000\000\000\000\000\000\000\000\000\000\000\000\000\327\314\340$\022l\250?\000\000\000\000\000\000\000\000\000\000\000\000\000\000\000\000\000\000\000\000\000\000\000\000\327\314\340$\022l\250?\000\000\000\000\000\000\000\000\000\000\000\000\000\000\000\000\000\000\000\000\000\000\000\000\327\314\340$\022l\250?\000\000\000\000\000\000\000\000\000\000\000\000\000\000\000\000\000\000\000\000\000\000\000\000\327\314\340$\022l\250?\000\000\000\000\000\000\000\000\000\000\000\000\000\000\000\000\000\000\000\000\000\000\000\000\327\314\340$\022l\250?\000\000\000\000\000\000\000\000\000\000\000\000\000\000\000\000\000\000\000\000\000\000\000\000\327\314\340$\022l\250?\000\000\000\000\000\000\000\000\000\000\000\000\000\000\000\000\000\000\000\000\000\000\000\000\327\314\340$\022l\250?\000\000\000\000\000\000\000\000\000\000\000\000\000\000\000\000\000\000\000\000\000\000\000\000\327\314\340$\022l\250?\000\000\000\000\000\000\000\000\000\000\000\000\000\000\000\000\000\000\000\000\000\000\000\000\327\314\340$\022l\250?\000\000\000\000\000\000\000\000\000\000\000\000\000\000\000\000\000\000\000\000\000\000\000\000\327\314\340$\022l\250?\000\000\000\000\000\000\000\000\000\000\000\000\000\000\000\000\000\000\000\000\000\000\000\000\327\314\340$\022l\250?\000\000\000\000\000\000\000\000\000\000\000\000\000\000\000\000\000\000\000\000\000\000\000\000\327\314\340$\022l\250?\000\000\000\000\000\000\000\000\000\000\000\000\000\000\000\000\000\000\000\000\000\000\000\000\327\314\340$\022l\250?\000\000\000\000\000\000\000\000\000\000\000\000\000\000\000\000\000\000\000\000\000\000\000\000\327\314\340$\022l\250?\000\000\000\000\000\000\000\000\000\000\000\000\000\000\000\000\000\000\000\000\000\000\000\000\327\314\340$\022l\250?\000\000\000\000\000\000\000\000\000\000\000\000\000\000\000\000\000\000\000\000\000\000\000\000\327\314\340$\022l\250?\000\000\000\000\000\000\000\000\000\000\000\000\000\000\000\000\000\000\000\000\000\000\000\000\327\314\340$\022l\250?\000\000\000\000\000\000\000\000\000\000\000\000\000\000\000\000\000\000\000\000\000\000\000\000\327\314\340$\022l\250?\000\000\000\000\000\000\000\000\000\000\000\000\000\000\000\000\000\000\000\000\000\000\000\000\327\314\340$\022l\250?\000\000\000\000\000\000\000\000\000\000\000\000\000\000\000\000\000\000\000\000\000\000\000\000\327\314\340$\022l\250?\000\000\000\000\000\000\000\000\000\000\000\000\000\000\000\000\000\000\000\000\000\000\000\000\327\314\340$\022l\250?\000\000\000\000\000\000\000\000\000\000\000\000\000\000\000\000\000\000\000\000\000\000\000\000\327\314\340$\022l\250?\000\000\000\000\000\000\000\000\000\000\000\000\000\000\000\000\000\000\000\000\000\000\000\000\327\314\340$\022l\250?\000\000\000\000\000\000\000\000\000\000\000\000\000\000\000\000\000\000\000\000\000\000\000\000\327\314\340$\022l\250?\000\000\000\000\000\000\000\000\000\000\000\000\000\000\000\000\000\000\000\000\000\000\000\000\327\314\340$\022l\250?\000\000\000\000\000\000\000\000\000\000\000\000\000\000\000\000\000\000\000\000\000\000\000\000\327\314\340$\022l\250?\000\000\000\000\000\000\000\000\000\000\000\000\000\000\000\000\000\000\000\000\000\000\000\000\327\314\340$\022l\250?\000\000\000\000\000\000\000\000\000\000\000\000\000\000\000\000\000\000\000\000\000\000\000\000\327\314\340$\022l\250?\000\000\000\000\000\000\000\000\000\000\000\000\000\000\000\000\000\000\000\000\000\000\000\000\327\314\340$\022l\250?\000\000\000\000\000\000\000\000\000\000\000\000\000\000\000\000\000\000\000\000\000\000\000\000\327\314\340$\022l\250?\000\000\000\000\000\000\000\000\000\000\000\000\000\000\000\000\000\000\000\000\000\000\000\000\327\314\340$\022l\250?\000\000\000\000\000\000\000\000\000\000\000\000\000\000\000\000\000\000\000\000\000\000\000\000\327\314\340$\022l\250?\000\000\000\000\000\000\000\000\000\000\000\000\000\000\000\000\000\000\000\000\000\000\000\000\327\314\340$\022l\250?\000\000\000\000\000\000\000\000\000\000\000\000\000\000\000\000\000\000\000\000\000\000\000\000\327\314\340$\022l\250?\000\000\000\000\000\000\000\000\000\000\000\000\000\000\000\000\000\000\000\000\000\000\000\000\327\314\340$\022l\250?\000\000\000\000\000\000\000\000\000\000\000\000\000\000\000\000\000\000\000\000\000\000\000\000\327\314\340$\022l\250?\000\000\000\000\000\000\000\000\000\000\000\000\000\000\000\000\000\000\000\000\000\000\000\000\327\314\340$\022l\250?\000\000\000\000\000\000\000\000\000\000\000\000\000\000\000\000\000\000\000\000\000\000\000\000\327\314\340$\022l\250?\000\000\000\000\000\000\000\000\000\000\000\000\000\000\000\000\000\000\000\000\000\000\000\000\327\314\340$\022l\250?\000\000\000\000\000\000\000\000\000\000\000\000\000\000\000\000\000\000\000\000\000\000\000\000\327\314\340$\022l\250?\000\000\000\000\000\000\000\000\000\000\000\000\000\000\000\000\000\000\000\000\000\000\000\000\327\314\340$\022l\250?\000\000\000\000\000\000\000\000\000\000\000\000\000\000\000\000\000\000\000\000\000\000\000\000\327\314\340$\022l\250?\000\000\000\000\000\000\000\000\000\000\000\000\000\000\000\000\000\000\000\000\000\000\000\000\327\314\340$\022l\250?\000\000\000\000\000\000\000\000\000\000\000\000\000\000\000\000\000\000\000\000\000\000\000\000\327\314\340$\022l\250?\000\000\000\000\000\000\000\000\000\000\000\000\000\000\000\000\000\000\000\000\000\000\000\000\327\314\340$\022l\250?\000\000\000\000\000\000\000\000\000\000\000\000\000\000\000\000\000\000\000\000\000\000\000\000\327\314\340$\022l\250?\000\000\000\000\000\000\000\000\000\000\000\000\000\000\000\000\000\000\000\000\000\000\000\000\327\314\340$\022l\250?\000\000\000\000\000\000\000\000\000\000\000\000\000\000\000\000\000\000\000\000\000\000\000\000\327\314\340$\022l\250?\000\000\000\000\000\000\000\000\000\000\000\000\000\000\000\000\000\000\000\000\000\000\000\000\327\314\340$\022l\250?\000\000\000\000\000\000\000\000\000\000\000\000\000\000\000\000\000\000\000\000\000\000\000\000\327\314\340$\022l\250?\000\000\000\000\000\000\000\000\000\000\000\000\000\000\000\000\000\000\000\000\000\000\000\000\327\314\340$\022l\250?\000\000\000\000\000\000\000\000\000\000\000\000\000\000\000\000\000\000\000\000\000\000\000\000\327\314\340$\022l\250?\000\000\000\000\000\000\000\000\000\000\000\000\000\000\000\000\000\000\000\000\000\000\000\000\327\314\340$\022l\250?\000\000\000\000\000\000\000\000\000\000\000\000\000\000\000\000\000\000\000\000\000\000\000\000\327\314\340$\022l\250?\000\000\000\000\000\000\000\000\000\000\000\000\000\000\000\000\000\000\000\000\000\000\000\000\327\314\340$\022l\250?\000\000\000\000\000\000\000\000\000\000\000\000\000\000\000\000\000\000\000\000\000\000\000\000\327\314\340$\022l\250?\000\000\000\000\000\000\000\000\000\000\000\000\000\000\000\000\000\000\000\000\000\000\000\000\327\314\340$\022l\250?\000\000\000\000\000\000\000\000\000\000\000\000\000\000\000\000\000\000\000\000\000\000\000\000\327\314\340$\022l\250?\000\000\000\000\000\000\000\000\000\000\000\000\000\000\000\000\000\000\000\000\000\000\000\000\327\314\340$\022l\250?\000\000\000\000\000\000\000\000\000\000\000\000\000\000\000\000\000\000\000\000\000\000\000\000\327\314\340$\022l\250?\000\000\000\000\000\000\000\000\000\000\000\000\000\000\000\000\000\000\000\000\000\000\000\000\327\314\340$\022l\250?\000\000\000\000\000\000\000\000\000\000\000\000\000\000\000\000\000\000\000\000\000\000\000\000\327\314\340$\022l\250?\000\000\000\000\000\000\000\000\000\000\000\000\000\000\000\000\000\000\000\000\000\000\000\000\327\314\340$\022l\250?\000\000\000\000\000\000\000\000\000\000\000\000\000\000\000\000\000\000\000\000\000\000\000\000\327\314\340$\022l\250?\000\000\000\000\000\000\000\000\000\000\000\000\000\000\000\000\000\000\000\000\000\000\000\000\327\314\340$\022l\250?\000\000\000\000\000\000\000\000\000\000\000\000\000\000\000\000\000\000\000\000\000\000\000\000\327\314\340$\022l\250?\000\000\000\000\000\000\000\000\000\000\000\000\000\000\000\000\000\000\000\000\000\000\000\000\327\314\340$\022l\250?\000\000\000\000\000\000\000\000\000\000\000\000\000\000\000\000\000\000\000\000\000\000\000\000\327\314\340$\022l\250?\000\000\000\000\000\000\000\000\000\000\000\000\000\000\000\000\000\000\000\000\000\000\000\000\327\314\340$\022l\250?\000\000\000\000\000\000\000\000\000\000\000\000\000\000\000\000\000\000\000\000\000\000\000\000\327\314\340$\022l\250?\000\000\000\000\000\000\000\000\000\000\000\000\000\000\000\000\000\000\000\000\000\000\000\000\327\314\340$\022l\250?\000\000\000\000\000\000\000\000\000\000\000\000\000\000\000\000\000\000\000\000\000\000\000\000\327\314\340$\022l\250?\000\000\000\000\000\000\000\000\000\000\000\000\000\000\000\000\000\000\000\000\000\000\000\000\327\314\340$\022l\250?\000\000\000\000\000\000\000\000\000\000\000\000\000\000\000\000\000\000\000\000\000\000\000\000\327\314\340$\022l\250?\000\000\000\000\000\000\000\000\000\000\000\000\000\000\000\000\000\000\000\000\000\000\000\000\327\314\340$\022l\250?\000\000\000\000\000\000\000\000\000\000\000\000\000\000\000\000\000\000\000\000\000\000\000\000\327\314\340$\022l\250?\000\000\000\000\000\000\000\000\000\000\000\000\000\000\000\000\000\000\000\000\000\000\000\000\327\314\340$\022l\250?\000\000\000\000\000\000\000\000\000\000\000\000\000\000\000\000\000\000\000\000\000\000\000\000\327\314\340$\022l\250?\000\000\000\000\000\000\000\000\000\000\000\000\000\000\000\000\000\000\000\000\000\000\000\000\327\314\340$\022l\250?\000\000\000\000\000\000\000\000\000\000\000\000\000\000\000\000\000\000\000\000\000\000\000\000\327\314\340$\022l\250?\000\000\000\000\000\000\000\000\000\000\000\000\000\000\000\000\000\000\000\000\000\000\000\000\327\314\340$\022l\250?\000\000\000\000\000\000\000\000\000\000\000\000\000\000\000\000\000\000\000\000\000\000\000\000\327\314\340$\022l\250?\000\000\000\000\000\000\000\000\000\000\000\000\000\000\000\000\000\000\000\000\000\000\000\000\327\314\340$\022l\250?\000\000\000\000\000\000\000\000\000\000\000\000\000\000\000\000\000\000\000\000\000\000\000\000\327\314\340$\022l\250?\000\000\000\000\000\000\000\000\000\000\000\000\000\000\000\000\000\000\000\000\000\000\000\000\327\314\340$\022l\250?\000\000\000\000\000\000\000\000\000\000\000\000\000\000\000\000\000\000\000\000\000\000\000\000\327\314\340$\022l\250?\000\000\000\000\000\000\000\000\000\000\000\000\000\000\000\000\000\000\000\000\000\000\000\000\327\314\340$\022l\250?\000\000\000\000\000\000\000\000\000\000\000\000\000\000\000\000\000\000\000\000\000\000\000\000\327\314\340$\022l\250?\000\000\000\000\000\000\000\000\000\000\000\000\000\000\000\000\000\000\000\000\000\000\000\000\327\314\340$\022l\250?\000\000\000\000\000\000\000\000\000\000\000\000\000\000\000\000\000\000\000\000\000\000\000\000\327\314\340$\022l\250?\000\000\000\000\000\000\000\000\000\000\000\000\000\000\000\000\000\000\000\000\000\000\000\000\327\314\340$\022l\250?\000\000\000\000\000\000\000\000\000\000\000\000\000\000\000\000\000\000\000\000\000\000\000\000\327\314\340$\022l\250?\000\000\000\000\000\000\000\000\000\000\000\000\000\000\000\000\000\000\000\000\000\000\000\000\327\314\340$\022l\250?\000\000\000\000\000\000\000\000\000\000\000\000\000\000\000\000\000\000\000\000\000\000\000\000\327\314\340$\022l\250?\000\000\000\000\000\000\000\000\000\000\000\000\000\000\000\000\000\000\000\000\000\000\000\000\327\314\340$\022l\250?\000\000\000\000\000\000\000\000\000\000\000\000\000\000\000\000\000\000\000\000\000\000\000\000\327\314\340$\022l\250?\000\000\000\000\000\000\000\000\000\000\000\000\000\000\000\000\000\000\000\000\000\000\000\000\327\314\340$\022l\250?\000\000\000\000\000\000\000\000\000\000\000\000\000\000\000\000\000\000\000\000\000\000\000\000\327\314\340$\022l\250?\000\000\000\000\000\000\000\000\000\000\000\000\000\000\000\000\000\000\000\000\000\000\000\000\327\314\340$\022l\250?\000\000\000\000\000\000\000\000\000\000\000\000\000\000\000\000\000\000\000\000\000\000\000\000\327\314\340$\022l\250?\000\000\000\000\000\000\000\000\000\000\000\000\000\000\000\000\000\000\000\000\000\000\000\000\327\314\340$\022l\250?\000\000\000\000\000\000\000\000\000\000\000\000\000\000\000\000\000\000\000\000\000\000\000\000\327\314\340$\022l\250?\000\000\000\000\000\000\000\000\000\000\000\000\000\000\000\000\000\000\000\000\000\000\000\000\327\314\340$\022l\250?\000\000\000\000\000\000\000\000\000\000\000\000\000\000\000\000\000\000\000\000\000\000\000\000\327\314\340$\022l\250?\000\000\000\000\000\000\000\000\000\000\000\000\000\000\000\000\000\000\000\000\000\000\000\000\327\314\340$\022l\250?\000\000\000\000\000\000\000\000\000\000\000\000\000\000\000\000\000\000\000\000\000\000\000\000\327\314\340$\022l\250?\000\000\000\000\000\000\000\000\000\000\000\000\000\000\000\000\000\000\000\000\000\000\000\000\327\314\340$\022l\250?\000\000\000\000\000\000\000\000\000\000\000\000\000\000\000\000\000\000\000\000\000\000\000\000\327\314\340$\022l\250?\000\000\000\000\000\000\000\000\000\000\000\000\000\000\000\000\000\000\000\000\000\000\000\000\327\314\340$\022l\250?\000\000\000\000\000\000\000\000\000\000\000\000\000\000\000\000\000\000\000\000\000\000\000\000\327\314\340$\022l\250?\000\000\000\000\000\000\000\000\000\000\000\000\000\000\000\000\000\000\000\000\000\000\000\000\327\314\340$\022l\250?\000\000\000\000\000\000\000\000\000\000\000\000\000\000\000\000\000\000\000\000\000\000\000\000"
      }
    }
  }
}
node {
  name: "descrpt_attr/t_avg/read"
  op: "Identity"
  input: "descrpt_attr/t_avg"
  attr {
    key: "T"
    value {
      type: DT_DOUBLE
    }
  }
  attr {
    key: "_class"
    value {
      list {
        s: "loc:@descrpt_attr/t_avg"
      }
    }
  }
}
node {
  name: "descrpt_attr/t_std"
  op: "Const"
  attr {
    key: "dtype"
    value {
      type: DT_DOUBLE
    }
  }
  attr {
    key: "value"
    value {
      tensor {
        dtype: DT_DOUBLE
        tensor_shape {
          dim {
            size: 2
          }
          dim {
            size: 552
          }
        }
        tensor_content: "\240\243\320\023i\332\301?\n\201\020\000\177\345\265?\n\201\020\000\177\345\265?\n\201\020\000\177\345\265?\240\243\320\023i\332\301?\n\201\020\000\177\345\265?\n\201\020\000\177\345\265?\n\201\020\000\177\345\265?\240\243\320\023i\332\301?\n\201\020\000\177\345\265?\n\201\020\000\177\345\265?\n\201\020\000\177\345\265?\240\243\320\023i\332\301?\n\201\020\000\177\345\265?\n\201\020\000\177\345\265?\n\201\020\000\177\345\265?\240\243\320\023i\332\301?\n\201\020\000\177\345\265?\n\201\020\000\177\345\265?\n\201\020\000\177\345\265?\240\243\320\023i\332\301?\n\201\020\000\177\345\265?\n\201\020\000\177\345\265?\n\201\020\000\177\345\265?\240\243\320\023i\332\301?\n\201\020\000\177\345\265?\n\201\020\000\177\345\265?\n\201\020\000\177\345\265?\240\243\320\023i\332\301?\n\201\020\000\177\345\265?\n\201\020\000\177\345\265?\n\201\020\000\177\345\265?\240\243\320\023i\332\301?\n\201\020\000\177\345\265?\n\201\020\000\177\345\265?\n\201\020\000\177\345\265?\240\243\320\023i\332\301?\n\201\020\000\177\345\265?\n\201\020\000\177\345\265?\n\201\020\000\177\345\265?\240\243\320\023i\332\301?\n\201\020\000\177\345\265?\n\201\020\000\177\345\265?\n\201\020\000\177\345\265?\240\243\320\023i\332\301?\n\201\020\000\177\345\265?\n\201\020\000\177\345\265?\n\201\020\000\177\345\265?\240\243\320\023i\332\301?\n\201\020\000\177\345\265?\n\201\020\000\177\345\265?\n\201\020\000\177\345\265?\240\243\320\023i\332\301?\n\201\020\000\177\345\265?\n\201\020\000\177\345\265?\n\201\020\000\177\345\265?\240\243\320\023i\332\301?\n\201\020\000\177\345\265?\n\201\020\000\177\345\265?\n\201\020\000\177\345\265?\240\243\320\023i\332\301?\n\201\020\000\177\345\265?\n\201\020\000\177\345\265?\n\201\020\000\177\345\265?\240\243\320\023i\332\301?\n\201\020\000\177\345\265?\n\201\020\000\177\345\265?\n\201\020\000\177\345\265?\240\243\320\023i\332\301?\n\201\020\000\177\345\265?\n\201\020\000\177\345\265?\n\201\020\000\177\345\265?\240\243\320\023i\332\301?\n\201\020\000\177\345\265?\n\201\020\000\177\345\265?\n\201\020\000\177\345\265?\240\243\320\023i\332\301?\n\201\020\000\177\345\265?\n\201\020\000\177\345\265?\n\201\020\000\177\345\265?\240\243\320\023i\332\301?\n\201\020\000\177\345\265?\n\201\020\000\177\345\265?\n\201\020\000\177\345\265?\240\243\320\023i\332\301?\n\201\020\000\177\345\265?\n\201\020\000\177\345\265?\n\201\020\000\177\345\265?\240\243\320\023i\332\301?\n\201\020\000\177\345\265?\n\201\020\000\177\345\265?\n\201\020\000\177\345\265?\240\243\320\023i\332\301?\n\201\020\000\177\345\265?\n\201\020\000\177\345\265?\n\201\020\000\177\345\265?\240\243\320\023i\332\301?\n\201\020\000\177\345\265?\n\201\020\000\177\345\265?\n\201\020\000\177\345\265?\240\243\320\023i\332\301?\n\201\020\000\177\345\265?\n\201\020\000\177\345\265?\n\201\020\000\177\345\265?\240\243\320\023i\332\301?\n\201\020\000\177\345\265?\n\201\020\000\177\345\265?\n\201\020\000\177\345\265?\240\243\320\023i\332\301?\n\201\020\000\177\345\265?\n\201\020\000\177\345\265?\n\201\020\000\177\345\265?\240\243\320\023i\332\301?\n\201\020\000\177\345\265?\n\201\020\000\177\345\265?\n\201\020\000\177\345\265?\240\243\320\023i\332\301?\n\201\020\000\177\345\265?\n\201\020\000\177\345\265?\n\201\020\000\177\345\265?\240\243\320\023i\332\301?\n\201\020\000\177\345\265?\n\201\020\000\177\345\265?\n\201\020\000\177\345\265?\240\243\320\023i\332\301?\n\201\020\000\177\345\265?\n\201\020\000\177\345\265?\n\201\020\000\177\345\265?\240\243\320\023i\332\301?\n\201\020\000\177\345\265?\n\201\020\000\177\345\265?\n\201\020\000\177\345\265?\240\243\320\023i\332\301?\n\201\020\000\177\345\265?\n\201\020\000\177\345\265?\n\201\020\000\177\345\265?\240\243\320\023i\332\301?\n\201\020\000\177\345\265?\n\201\020\000\177\345\265?\n\201\020\000\177\345\265?\240\243\320\023i\332\301?\n\201\020\000\177\345\265?\n\201\020\000\177\345\265?\n\201\020\000\177\345\265?\240\243\320\023i\332\301?\n\201\020\000\177\345\265?\n\201\020\000\177\345\265?\n\201\020\000\177\345\265?\240\243\320\023i\332\301?\n\201\020\000\177\345\265?\n\201\020\000\177\345\265?\n\201\020\000\177\345\265?\240\243\320\023i\332\301?\n\201\020\000\177\345\265?\n\201\020\000\177\345\265?\n\201\020\000\177\345\265?\240\243\320\023i\332\301?\n\201\020\000\177\345\265?\n\201\020\000\177\345\265?\n\201\020\000\177\345\265?\240\243\320\023i\332\301?\n\201\020\000\177\345\265?\n\201\020\000\177\345\265?\n\201\020\000\177\345\265?\240\243\320\023i\332\301?\n\201\020\000\177\345\265?\n\201\020\000\177\345\265?\n\201\020\000\177\345\265?\240\243\320\023i\332\301?\n\201\020\000\177\345\265?\n\201\020\000\177\345\265?\n\201\020\000\177\345\265?\240\243\320\023i\332\301?\n\201\020\000\177\345\265?\n\201\020\000\177\345\265?\n\201\020\000\177\345\265?\240\243\320\023i\332\301?\n\201\020\000\177\345\265?\n\201\020\000\177\345\265?\n\201\020\000\177\345\265?\240\243\320\023i\332\301?\n\201\020\000\177\345\265?\n\201\020\000\177\345\265?\n\201\020\000\177\345\265?\240\243\320\023i\332\301?\n\201\020\000\177\345\265?\n\201\020\000\177\345\265?\n\201\020\000\177\345\265?\240\243\320\023i\332\301?\n\201\020\000\177\345\265?\n\201\020\000\177\345\265?\n\201\020\000\177\345\265?\240\243\320\023i\332\301?\n\201\020\000\177\345\265?\n\201\020\000\177\345\265?\n\201\020\000\177\345\265?\240\243\320\023i\332\301?\n\201\020\000\177\345\265?\n\201\020\000\177\345\265?\n\201\020\000\177\345\265?\240\243\320\023i\332\301?\n\201\020\000\177\345\265?\n\201\020\000\177\345\265?\n\201\020\000\177\345\265?\240\243\320\023i\332\301?\n\201\020\000\177\345\265?\n\201\020\000\177\345\265?\n\201\020\000\177\345\265?\240\243\320\023i\332\301?\n\201\020\000\177\345\265?\n\201\020\000\177\345\265?\n\201\020\000\177\345\265?\240\243\320\023i\332\301?\n\201\020\000\177\345\265?\n\201\020\000\177\345\265?\n\201\020\000\177\345\265?\240\243\320\023i\332\301?\n\201\020\000\177\345\265?\n\201\020\000\177\345\265?\n\201\020\000\177\345\265?\240\243\320\023i\332\301?\n\201\020\000\177\345\265?\n\201\020\000\177\345\265?\n\201\020\000\177\345\265?\240\243\320\023i\332\301?\n\201\020\000\177\345\265?\n\201\020\000\177\345\265?\n\201\020\000\177\345\265?\240\243\320\023i\332\301?\n\201\020\000\177\345\265?\n\201\020\000\177\345\265?\n\201\020\000\177\345\265?\240\243\320\023i\332\301?\n\201\020\000\177\345\265?\n\201\020\000\177\345\265?\n\201\020\000\177\345\265?\240\243\320\023i\332\301?\n\201\020\000\177\345\265?\n\201\020\000\177\345\265?\n\201\020\000\177\345\265?\240\243\320\023i\332\301?\n\201\020\000\177\345\265?\n\201\020\000\177\345\265?\n\201\020\000\177\345\265?\240\243\320\023i\332\301?\n\201\020\000\177\345\265?\n\201\020\000\177\345\265?\n\201\020\000\177\345\265?\240\243\320\023i\332\301?\n\201\020\000\177\345\265?\n\201\020\000\177\345\265?\n\201\020\000\177\345\265?\240\243\320\023i\332\301?\n\201\020\000\177\345\265?\n\201\020\000\177\345\265?\n\201\020\000\177\345\265?\240\243\320\023i\332\301?\n\201\020\000\177\345\265?\n\201\020\000\177\345\265?\n\201\020\000\177\345\265?\240\243\320\023i\332\301?\n\201\020\000\177\345\265?\n\201\020\000\177\345\265?\n\201\020\000\177\345\265?\240\243\320\023i\332\301?\n\201\020\000\177\345\265?\n\201\020\000\177\345\265?\n\201\020\000\177\345\265?\240\243\320\023i\332\301?\n\201\020\000\177\345\265?\n\201\020\000\177\345\265?\n\201\020\000\177\345\265?\240\243\320\023i\332\301?\n\201\020\000\177\345\265?\n\201\020\000\177\345\265?\n\201\020\000\177\345\265?\240\243\320\023i\332\301?\n\201\020\000\177\345\265?\n\201\020\000\177\345\265?\n\201\020\000\177\345\265?\240\243\320\023i\332\301?\n\201\020\000\177\345\265?\n\201\020\000\177\345\265?\n\201\020\000\177\345\265?\240\243\320\023i\332\301?\n\201\020\000\177\345\265?\n\201\020\000\177\345\265?\n\201\020\000\177\345\265?\240\243\320\023i\332\301?\n\201\020\000\177\345\265?\n\201\020\000\177\345\265?\n\201\020\000\177\345\265?\240\243\320\023i\332\301?\n\201\020\000\177\345\265?\n\201\020\000\177\345\265?\n\201\020\000\177\345\265?\240\243\320\023i\332\301?\n\201\020\000\177\345\265?\n\201\020\000\177\345\265?\n\201\020\000\177\345\265?\240\243\320\023i\332\301?\n\201\020\000\177\345\265?\n\201\020\000\177\345\265?\n\201\020\000\177\345\265?\240\243\320\023i\332\301?\n\201\020\000\177\345\265?\n\201\020\000\177\345\265?\n\201\020\000\177\345\265?\240\243\320\023i\332\301?\n\201\020\000\177\345\265?\n\201\020\000\177\345\265?\n\201\020\000\177\345\265?\240\243\320\023i\332\301?\n\201\020\000\177\345\265?\n\201\020\000\177\345\265?\n\201\020\000\177\345\265?\240\243\320\023i\332\301?\n\201\020\000\177\345\265?\n\201\020\000\177\345\265?\n\201\020\000\177\345\265?\240\243\320\023i\332\301?\n\201\020\000\177\345\265?\n\201\020\000\177\345\265?\n\201\020\000\177\345\265?\240\243\320\023i\332\301?\n\201\020\000\177\345\265?\n\201\020\000\177\345\265?\n\201\020\000\177\345\265?\240\243\320\023i\332\301?\n\201\020\000\177\345\265?\n\201\020\000\177\345\265?\n\201\020\000\177\345\265?\240\243\320\023i\332\301?\n\201\020\000\177\345\265?\n\201\020\000\177\345\265?\n\201\020\000\177\345\265?\240\243\320\023i\332\301?\n\201\020\000\177\345\265?\n\201\020\000\177\345\265?\n\201\020\000\177\345\265?\240\243\320\023i\332\301?\n\201\020\000\177\345\265?\n\201\020\000\177\345\265?\n\201\020\000\177\345\265?\240\243\320\023i\332\301?\n\201\020\000\177\345\265?\n\201\020\000\177\345\265?\n\201\020\000\177\345\265?\240\243\320\023i\332\301?\n\201\020\000\177\345\265?\n\201\020\000\177\345\265?\n\201\020\000\177\345\265?\240\243\320\023i\332\301?\n\201\020\000\177\345\265?\n\201\020\000\177\345\265?\n\201\020\000\177\345\265?\240\243\320\023i\332\301?\n\201\020\000\177\345\265?\n\201\020\000\177\345\265?\n\201\020\000\177\345\265?\240\243\320\023i\332\301?\n\201\020\000\177\345\265?\n\201\020\000\177\345\265?\n\201\020\000\177\345\265?\240\243\320\023i\332\301?\n\201\020\000\177\345\265?\n\201\020\000\177\345\265?\n\201\020\000\177\345\265?\240\243\320\023i\332\301?\n\201\020\000\177\345\265?\n\201\020\000\177\345\265?\n\201\020\000\177\345\265?\240\243\320\023i\332\301?\n\201\020\000\177\345\265?\n\201\020\000\177\345\265?\n\201\020\000\177\345\265?\240\243\320\023i\332\301?\n\201\020\000\177\345\265?\n\201\020\000\177\345\265?\n\201\020\000\177\345\265?\240\243\320\023i\332\301?\n\201\020\000\177\345\265?\n\201\020\000\177\345\265?\n\201\020\000\177\345\265?\240\243\320\023i\332\301?\n\201\020\000\177\345\265?\n\201\020\000\177\345\265?\n\201\020\000\177\345\265?\240\243\320\023i\332\301?\n\201\020\000\177\345\265?\n\201\020\000\177\345\265?\n\201\020\000\177\345\265?\240\243\320\023i\332\301?\n\201\020\000\177\345\265?\n\201\020\000\177\345\265?\n\201\020\000\177\345\265?\240\243\320\023i\332\301?\n\201\020\000\177\345\265?\n\201\020\000\177\345\265?\n\201\020\000\177\345\265?\240\243\320\023i\332\301?\n\201\020\000\177\345\265?\n\201\020\000\177\345\265?\n\201\020\000\177\345\265?\240\243\320\023i\332\301?\n\201\020\000\177\345\265?\n\201\020\000\177\345\265?\n\201\020\000\177\345\265?\240\243\320\023i\332\301?\n\201\020\000\177\345\265?\n\201\020\000\177\345\265?\n\201\020\000\177\345\265?\240\243\320\023i\332\301?\n\201\020\000\177\345\265?\n\201\020\000\177\345\265?\n\201\020\000\177\345\265?\240\243\320\023i\332\301?\n\201\020\000\177\345\265?\n\201\020\000\177\345\265?\n\201\020\000\177\345\265?\240\243\320\023i\332\301?\n\201\020\000\177\345\265?\n\201\020\000\177\345\265?\n\201\020\000\177\345\265?\240\243\320\023i\332\301?\n\201\020\000\177\345\265?\n\201\020\000\177\345\265?\n\201\020\000\177\345\265?\240\243\320\023i\332\301?\n\201\020\000\177\345\265?\n\201\020\000\177\345\265?\n\201\020\000\177\345\265?\240\243\320\023i\332\301?\n\201\020\000\177\345\265?\n\201\020\000\177\345\265?\n\201\020\000\177\345\265?\240\243\320\023i\332\301?\n\201\020\000\177\345\265?\n\201\020\000\177\345\265?\n\201\020\000\177\345\265?\240\243\320\023i\332\301?\n\201\020\000\177\345\265?\n\201\020\000\177\345\265?\n\201\020\000\177\345\265?\240\243\320\023i\332\301?\n\201\020\000\177\345\265?\n\201\020\000\177\345\265?\n\201\020\000\177\345\265?\240\243\320\023i\332\301?\n\201\020\000\177\345\265?\n\201\020\000\177\345\265?\n\201\020\000\177\345\265?\240\243\320\023i\332\301?\n\201\020\000\177\345\265?\n\201\020\000\177\345\265?\n\201\020\000\177\345\265?\240\243\320\023i\332\301?\n\201\020\000\177\345\265?\n\201\020\000\177\345\265?\n\201\020\000\177\345\265?\240\243\320\023i\332\301?\n\201\020\000\177\345\265?\n\201\020\000\177\345\265?\n\201\020\000\177\345\265?\240\243\320\023i\332\301?\n\201\020\000\177\345\265?\n\201\020\000\177\345\265?\n\201\020\000\177\345\265?\240\243\320\023i\332\301?\n\201\020\000\177\345\265?\n\201\020\000\177\345\265?\n\201\020\000\177\345\265?\240\243\320\023i\332\301?\n\201\020\000\177\345\265?\n\201\020\000\177\345\265?\n\201\020\000\177\345\265?\240\243\320\023i\332\301?\n\201\020\000\177\345\265?\n\201\020\000\177\345\265?\n\201\020\000\177\345\265?\240\243\320\023i\332\301?\n\201\020\000\177\345\265?\n\201\020\000\177\345\265?\n\201\020\000\177\345\265?\240\243\320\023i\332\301?\n\201\020\000\177\345\265?\n\201\020\000\177\345\265?\n\201\020\000\177\345\265?\240\243\320\023i\332\301?\n\201\020\000\177\345\265?\n\201\020\000\177\345\265?\n\201\020\000\177\345\265?\240\243\320\023i\332\301?\n\201\020\000\177\345\265?\n\201\020\000\177\345\265?\n\201\020\000\177\345\265?\240\243\320\023i\332\301?\n\201\020\000\177\345\265?\n\201\020\000\177\345\265?\n\201\020\000\177\345\265?\240\243\320\023i\332\301?\n\201\020\000\177\345\265?\n\201\020\000\177\345\265?\n\201\020\000\177\345\265?\240\243\320\023i\332\301?\n\201\020\000\177\345\265?\n\201\020\000\177\345\265?\n\201\020\000\177\345\265?\240\243\320\023i\332\301?\n\201\020\000\177\345\265?\n\201\020\000\177\345\265?\n\201\020\000\177\345\265?\240\243\320\023i\332\301?\n\201\020\000\177\345\265?\n\201\020\000\177\345\265?\n\201\020\000\177\345\265?\240\243\320\023i\332\301?\n\201\020\000\177\345\265?\n\201\020\000\177\345\265?\n\201\020\000\177\345\265?\240\243\320\023i\332\301?\n\201\020\000\177\345\265?\n\201\020\000\177\345\265?\n\201\020\000\177\345\265?\240\243\320\023i\332\301?\n\201\020\000\177\345\265?\n\201\020\000\177\345\265?\n\201\020\000\177\345\265?\240\243\320\023i\332\301?\n\201\020\000\177\345\265?\n\201\020\000\177\345\265?\n\201\020\000\177\345\265?\240\243\320\023i\332\301?\n\201\020\000\177\345\265?\n\201\020\000\177\345\265?\n\201\020\000\177\345\265?\240\243\320\023i\332\301?\n\201\020\000\177\345\265?\n\201\020\000\177\345\265?\n\201\020\000\177\345\265?\240\243\320\023i\332\301?\n\201\020\000\177\345\265?\n\201\020\000\177\345\265?\n\201\020\000\177\345\265?\240\243\320\023i\332\301?\n\201\020\000\177\345\265?\n\201\020\000\177\345\265?\n\201\020\000\177\345\265?\240\243\320\023i\332\301?\n\201\020\000\177\345\265?\n\201\020\000\177\345\265?\n\201\020\000\177\345\265?\307\202\033w\270\262\277?K\275O\346\245\234\263?K\275O\346\245\234\263?K\275O\346\245\234\263?\307\202\033w\270\262\277?K\275O\346\245\234\263?K\275O\346\245\234\263?K\275O\346\245\234\263?\307\202\033w\270\262\277?K\275O\346\245\234\263?K\275O\346\245\234\263?K\275O\346\245\234\263?\307\202\033w\270\262\277?K\275O\346\245\234\263?K\275O\346\245\234\263?K\275O\346\245\234\263?\307\202\033w\270\262\277?K\275O\346\245\234\263?K\275O\346\245\234\263?K\275O\346\245\234\263?\307\202\033w\270\262\277?K\275O\346\245\234\263?K\275O\346\245\234\263?K\275O\346\245\234\263?\307\202\033w\270\262\277?K\275O\346\245\234\263?K\275O\346\245\234\263?K\275O\346\245\234\263?\307\202\033w\270\262\277?K\275O\346\245\234\263?K\275O\346\245\234\263?K\275O\346\245\234\263?\307\202\033w\270\262\277?K\275O\346\245\234\263?K\275O\346\245\234\263?K\275O\346\245\234\263?\307\202\033w\270\262\277?K\275O\346\245\234\263?K\275O\346\245\234\263?K\275O\346\245\234\263?\307\202\033w\270\262\277?K\275O\346\245\234\263?K\275O\346\245\234\263?K\275O\346\245\234\263?\307\202\033w\270\262\277?K\275O\346\245\234\263?K\275O\346\245\234\263?K\275O\346\245\234\263?\307\202\033w\270\262\277?K\275O\346\245\234\263?K\275O\346\245\234\263?K\275O\346\245\234\263?\307\202\033w\270\262\277?K\275O\346\245\234\263?K\275O\346\245\234\263?K\275O\346\245\234\263?\307\202\033w\270\262\277?K\275O\346\245\234\263?K\275O\346\245\234\263?K\275O\346\245\234\263?\307\202\033w\270\262\277?K\275O\346\245\234\263?K\275O\346\245\234\263?K\275O\346\245\234\263?\307\202\033w\270\262\277?K\275O\346\245\234\263?K\275O\346\245\234\263?K\275O\346\245\234\263?\307\202\033w\270\262\277?K\275O\346\245\234\263?K\275O\346\245\234\263?K\275O\346\245\234\263?\307\202\033w\270\262\277?K\275O\346\245\234\263?K\275O\346\245\234\263?K\275O\346\245\234\263?\307\202\033w\270\262\277?K\275O\346\245\234\263?K\275O\346\245\234\263?K\275O\346\245\234\263?\307\202\033w\270\262\277?K\275O\346\245\234\263?K\275O\346\245\234\263?K\275O\346\245\234\263?\307\202\033w\270\262\277?K\275O\346\245\234\263?K\275O\346\245\234\263?K\275O\346\245\234\263?\307\202\033w\270\262\277?K\275O\346\245\234\263?K\275O\346\245\234\263?K\275O\346\245\234\263?\307\202\033w\270\262\277?K\275O\346\245\234\263?K\275O\346\245\234\263?K\275O\346\245\234\263?\307\202\033w\270\262\277?K\275O\346\245\234\263?K\275O\346\245\234\263?K\275O\346\245\234\263?\307\202\033w\270\262\277?K\275O\346\245\234\263?K\275O\346\245\234\263?K\275O\346\245\234\263?\307\202\033w\270\262\277?K\275O\346\245\234\263?K\275O\346\245\234\263?K\275O\346\245\234\263?\307\202\033w\270\262\277?K\275O\346\245\234\263?K\275O\346\245\234\263?K\275O\346\245\234\263?\307\202\033w\270\262\277?K\275O\346\245\234\263?K\275O\346\245\234\263?K\275O\346\245\234\263?\307\202\033w\270\262\277?K\275O\346\245\234\263?K\275O\346\245\234\263?K\275O\346\245\234\263?\307\202\033w\270\262\277?K\275O\346\245\234\263?K\275O\346\245\234\263?K\275O\346\245\234\263?\307\202\033w\270\262\277?K\275O\346\245\234\263?K\275O\346\245\234\263?K\275O\346\245\234\263?\307\202\033w\270\262\277?K\275O\346\245\234\263?K\275O\346\245\234\263?K\275O\346\245\234\263?\307\202\033w\270\262\277?K\275O\346\245\234\263?K\275O\346\245\234\263?K\275O\346\245\234\263?\307\202\033w\270\262\277?K\275O\346\245\234\263?K\275O\346\245\234\263?K\275O\346\245\234\263?\307\202\033w\270\262\277?K\275O\346\245\234\263?K\275O\346\245\234\263?K\275O\346\245\234\263?\307\202\033w\270\262\277?K\275O\346\245\234\263?K\275O\346\245\234\263?K\275O\346\245\234\263?\307\202\033w\270\262\277?K\275O\346\245\234\263?K\275O\346\245\234\263?K\275O\346\245\234\263?\307\202\033w\270\262\277?K\275O\346\245\234\263?K\275O\346\245\234\263?K\275O\346\245\234\263?\307\202\033w\270\262\277?K\275O\346\245\234\263?K\275O\346\245\234\263?K\275O\346\245\234\263?\307\202\033w\270\262\277?K\275O\346\245\234\263?K\275O\346\245\234\263?K\275O\346\245\234\263?\307\202\033w\270\262\277?K\275O\346\245\234\263?K\275O\346\245\234\263?K\275O\346\245\234\263?\307\202\033w\270\262\277?K\275O\346\245\234\263?K\275O\346\245\234\263?K\275O\346\245\234\263?\307\202\033w\270\262\277?K\275O\346\245\234\263?K\275O\346\245\234\263?K\275O\346\245\234\263?\307\202\033w\270\262\277?K\275O\346\245\234\263?K\275O\346\245\234\263?K\275O\346\245\234\263?\307\202\033w\270\262\277?K\275O\346\245\234\263?K\275O\346\245\234\263?K\275O\346\245\234\263?\307\202\033w\270\262\277?K\275O\346\245\234\263?K\275O\346\245\234\263?K\275O\346\245\234\263?\307\202\033w\270\262\277?K\275O\346\245\234\263?K\275O\346\245\234\263?K\275O\346\245\234\263?\307\202\033w\270\262\277?K\275O\346\245\234\263?K\275O\346\245\234\263?K\275O\346\245\234\263?\307\202\033w\270\262\277?K\275O\346\245\234\263?K\275O\346\245\234\263?K\275O\346\245\234\263?\307\202\033w\270\262\277?K\275O\346\245\234\263?K\275O\346\245\234\263?K\275O\346\245\234\263?\307\202\033w\270\262\277?K\275O\346\245\234\263?K\275O\346\245\234\263?K\275O\346\245\234\263?\307\202\033w\270\262\277?K\275O\346\245\234\263?K\275O\346\245\234\263?K\275O\346\245\234\263?\307\202\033w\270\262\277?K\275O\346\245\234\263?K\275O\346\245\234\263?K\275O\346\245\234\263?\307\202\033w\270\262\277?K\275O\346\245\234\263?K\275O\346\245\234\263?K\275O\346\245\234\263?\307\202\033w\270\262\277?K\275O\346\245\234\263?K\275O\346\245\234\263?K\275O\346\245\234\263?\307\202\033w\270\262\277?K\275O\346\245\234\263?K\275O\346\245\234\263?K\275O\346\245\234\263?\307\202\033w\270\262\277?K\275O\346\245\234\263?K\275O\346\245\234\263?K\275O\346\245\234\263?\307\202\033w\270\262\277?K\275O\346\245\234\263?K\275O\346\245\234\263?K\275O\346\245\234\263?\307\202\033w\270\262\277?K\275O\346\245\234\263?K\275O\346\245\234\263?K\275O\346\245\234\263?\307\202\033w\270\262\277?K\275O\346\245\234\263?K\275O\346\245\234\263?K\275O\346\245\234\263?\307\202\033w\270\262\277?K\275O\346\245\234\263?K\275O\346\245\234\263?K\275O\346\245\234\263?\307\202\033w\270\262\277?K\275O\346\245\234\263?K\275O\346\245\234\263?K\275O\346\245\234\263?\307\202\033w\270\262\277?K\275O\346\245\234\263?K\275O\346\245\234\263?K\275O\346\245\234\263?\307\202\033w\270\262\277?K\275O\346\245\234\263?K\275O\346\245\234\263?K\275O\346\245\234\263?\307\202\033w\270\262\277?K\275O\346\245\234\263?K\275O\346\245\234\263?K\275O\346\245\234\263?\307\202\033w\270\262\277?K\275O\346\245\234\263?K\275O\346\245\234\263?K\275O\346\245\234\263?\307\202\033w\270\262\277?K\275O\346\245\234\263?K\275O\346\245\234\263?K\275O\346\245\234\263?\307\202\033w\270\262\277?K\275O\346\245\234\263?K\275O\346\245\234\263?K\275O\346\245\234\263?\307\202\033w\270\262\277?K\275O\346\245\234\263?K\275O\346\245\234\263?K\275O\346\245\234\263?\307\202\033w\270\262\277?K\275O\346\245\234\263?K\275O\346\245\234\263?K\275O\346\245\234\263?\307\202\033w\270\262\277?K\275O\346\245\234\263?K\275O\346\245\234\263?K\275O\346\245\234\263?\307\202\033w\270\262\277?K\275O\346\245\234\263?K\275O\346\245\234\263?K\275O\346\245\234\263?\307\202\033w\270\262\277?K\275O\346\245\234\263?K\275O\346\245\234\263?K\275O\346\245\234\263?\307\202\033w\270\262\277?K\275O\346\245\234\263?K\275O\346\245\234\263?K\275O\346\245\234\263?\307\202\033w\270\262\277?K\275O\346\245\234\263?K\275O\346\245\234\263?K\275O\346\245\234\263?\307\202\033w\270\262\277?K\275O\346\245\234\263?K\275O\346\245\234\263?K\275O\346\245\234\263?\307\202\033w\270\262\277?K\275O\346\245\234\263?K\275O\346\245\234\263?K\275O\346\245\234\263?\307\202\033w\270\262\277?K\275O\346\245\234\263?K\275O\346\245\234\263?K\275O\346\245\234\263?\307\202\033w\270\262\277?K\275O\346\245\234\263?K\275O\346\245\234\263?K\275O\346\245\234\263?\307\202\033w\270\262\277?K\275O\346\245\234\263?K\275O\346\245\234\263?K\275O\346\245\234\263?\307\202\033w\270\262\277?K\275O\346\245\234\263?K\275O\346\245\234\263?K\275O\346\245\234\263?\307\202\033w\270\262\277?K\275O\346\245\234\263?K\275O\346\245\234\263?K\275O\346\245\234\263?\307\202\033w\270\262\277?K\275O\346\245\234\263?K\275O\346\245\234\263?K\275O\346\245\234\263?\307\202\033w\270\262\277?K\275O\346\245\234\263?K\275O\346\245\234\263?K\275O\346\245\234\263?\307\202\033w\270\262\277?K\275O\346\245\234\263?K\275O\346\245\234\263?K\275O\346\245\234\263?\307\202\033w\270\262\277?K\275O\346\245\234\263?K\275O\346\245\234\263?K\275O\346\245\234\263?\307\202\033w\270\262\277?K\275O\346\245\234\263?K\275O\346\245\234\263?K\275O\346\245\234\263?\307\202\033w\270\262\277?K\275O\346\245\234\263?K\275O\346\245\234\263?K\275O\346\245\234\263?\307\202\033w\270\262\277?K\275O\346\245\234\263?K\275O\346\245\234\263?K\275O\346\245\234\263?\307\202\033w\270\262\277?K\275O\346\245\234\263?K\275O\346\245\234\263?K\275O\346\245\234\263?\307\202\033w\270\262\277?K\275O\346\245\234\263?K\275O\346\245\234\263?K\275O\346\245\234\263?\307\202\033w\270\262\277?K\275O\346\245\234\263?K\275O\346\245\234\263?K\275O\346\245\234\263?\307\202\033w\270\262\277?K\275O\346\245\234\263?K\275O\346\245\234\263?K\275O\346\245\234\263?\307\202\033w\270\262\277?K\275O\346\245\234\263?K\275O\346\245\234\263?K\275O\346\245\234\263?\307\202\033w\270\262\277?K\275O\346\245\234\263?K\275O\346\245\234\263?K\275O\346\245\234\263?\307\202\033w\270\262\277?K\275O\346\245\234\263?K\275O\346\245\234\263?K\275O\346\245\234\263?\307\202\033w\270\262\277?K\275O\346\245\234\263?K\275O\346\245\234\263?K\275O\346\245\234\263?\307\202\033w\270\262\277?K\275O\346\245\234\263?K\275O\346\245\234\263?K\275O\346\245\234\263?\307\202\033w\270\262\277?K\275O\346\245\234\263?K\275O\346\245\234\263?K\275O\346\245\234\263?\307\202\033w\270\262\277?K\275O\346\245\234\263?K\275O\346\245\234\263?K\275O\346\245\234\263?\307\202\033w\270\262\277?K\275O\346\245\234\263?K\275O\346\245\234\263?K\275O\346\245\234\263?\307\202\033w\270\262\277?K\275O\346\245\234\263?K\275O\346\245\234\263?K\275O\346\245\234\263?\307\202\033w\270\262\277?K\275O\346\245\234\263?K\275O\346\245\234\263?K\275O\346\245\234\263?\307\202\033w\270\262\277?K\275O\346\245\234\263?K\275O\346\245\234\263?K\275O\346\245\234\263?\307\202\033w\270\262\277?K\275O\346\245\234\263?K\275O\346\245\234\263?K\275O\346\245\234\263?\307\202\033w\270\262\277?K\275O\346\245\234\263?K\275O\346\245\234\263?K\275O\346\245\234\263?\307\202\033w\270\262\277?K\275O\346\245\234\263?K\275O\346\245\234\263?K\275O\346\245\234\263?\307\202\033w\270\262\277?K\275O\346\245\234\263?K\275O\346\245\234\263?K\275O\346\245\234\263?\307\202\033w\270\262\277?K\275O\346\245\234\263?K\275O\346\245\234\263?K\275O\346\245\234\263?\307\202\033w\270\262\277?K\275O\346\245\234\263?K\275O\346\245\234\263?K\275O\346\245\234\263?\307\202\033w\270\262\277?K\275O\346\245\234\263?K\275O\346\245\234\263?K\275O\346\245\234\263?\307\202\033w\270\262\277?K\275O\346\245\234\263?K\275O\346\245\234\263?K\275O\346\245\234\263?\307\202\033w\270\262\277?K\275O\346\245\234\263?K\275O\346\245\234\263?K\275O\346\245\234\263?\307\202\033w\270\262\277?K\275O\346\245\234\263?K\275O\346\245\234\263?K\275O\346\245\234\263?\307\202\033w\270\262\277?K\275O\346\245\234\263?K\275O\346\245\234\263?K\275O\346\245\234\263?\307\202\033w\270\262\277?K\275O\346\245\234\263?K\275O\346\245\234\263?K\275O\346\245\234\263?\307\202\033w\270\262\277?K\275O\346\245\234\263?K\275O\346\245\234\263?K\275O\346\245\234\263?\307\202\033w\270\262\277?K\275O\346\245\234\263?K\275O\346\245\234\263?K\275O\346\245\234\263?\307\202\033w\270\262\277?K\275O\346\245\234\263?K\275O\346\245\234\263?K\275O\346\245\234\263?\307\202\033w\270\262\277?K\275O\346\245\234\263?K\275O\346\245\234\263?K\275O\346\245\234\263?\307\202\033w\270\262\277?K\275O\346\245\234\263?K\275O\346\245\234\263?K\275O\346\245\234\263?\307\202\033w\270\262\277?K\275O\346\245\234\263?K\275O\346\245\234\263?K\275O\346\245\234\263?\307\202\033w\270\262\277?K\275O\346\245\234\263?K\275O\346\245\234\263?K\275O\346\245\234\263?\307\202\033w\270\262\277?K\275O\346\245\234\263?K\275O\346\245\234\263?K\275O\346\245\234\263?\307\202\033w\270\262\277?K\275O\346\245\234\263?K\275O\346\245\234\263?K\275O\346\245\234\263?\307\202\033w\270\262\277?K\275O\346\245\234\263?K\275O\346\245\234\263?K\275O\346\245\234\263?\307\202\033w\270\262\277?K\275O\346\245\234\263?K\275O\346\245\234\263?K\275O\346\245\234\263?\307\202\033w\270\262\277?K\275O\346\245\234\263?K\275O\346\245\234\263?K\275O\346\245\234\263?\307\202\033w\270\262\277?K\275O\346\245\234\263?K\275O\346\245\234\263?K\275O\346\245\234\263?\307\202\033w\270\262\277?K\275O\346\245\234\263?K\275O\346\245\234\263?K\275O\346\245\234\263?\307\202\033w\270\262\277?K\275O\346\245\234\263?K\275O\346\245\234\263?K\275O\346\245\234\263?\307\202\033w\270\262\277?K\275O\346\245\234\263?K\275O\346\245\234\263?K\275O\346\245\234\263?\307\202\033w\270\262\277?K\275O\346\245\234\263?K\275O\346\245\234\263?K\275O\346\245\234\263?\307\202\033w\270\262\277?K\275O\346\245\234\263?K\275O\346\245\234\263?K\275O\346\245\234\263?\307\202\033w\270\262\277?K\275O\346\245\234\263?K\275O\346\245\234\263?K\275O\346\245\234\263?\307\202\033w\270\262\277?K\275O\346\245\234\263?K\275O\346\245\234\263?K\275O\346\245\234\263?\307\202\033w\270\262\277?K\275O\346\245\234\263?K\275O\346\245\234\263?K\275O\346\245\234\263?"
      }
    }
  }
}
node {
  name: "descrpt_attr/t_std/read"
  op: "Identity"
  input: "descrpt_attr/t_std"
  attr {
    key: "T"
    value {
      type: DT_DOUBLE
    }
  }
  attr {
    key: "_class"
    value {
      list {
        s: "loc:@descrpt_attr/t_std"
      }
    }
  }
}
node {
  name: "strided_slice_4/stack"
  op: "Const"
  input: "^descrpt_attr/original_sel"
  input: "^descrpt_attr/sel"
  attr {
    key: "dtype"
    value {
      type: DT_INT32
    }
  }
  attr {
    key: "value"
    value {
      tensor {
        dtype: DT_INT32
        tensor_shape {
          dim {
            size: 1
          }
        }
        int_val: 1
      }
    }
  }
}
node {
  name: "strided_slice_4/stack_1"
  op: "Const"
  input: "^descrpt_attr/original_sel"
  input: "^descrpt_attr/sel"
  attr {
    key: "dtype"
    value {
      type: DT_INT32
    }
  }
  attr {
    key: "value"
    value {
      tensor {
        dtype: DT_INT32
        tensor_shape {
          dim {
            size: 1
          }
        }
        int_val: 2
      }
    }
  }
}
node {
  name: "strided_slice_4/stack_2"
  op: "Const"
  input: "^descrpt_attr/original_sel"
  input: "^descrpt_attr/sel"
  attr {
    key: "dtype"
    value {
      type: DT_INT32
    }
  }
  attr {
    key: "value"
    value {
      tensor {
        dtype: DT_INT32
        tensor_shape {
          dim {
            size: 1
          }
        }
        int_val: 1
      }
    }
  }
}
node {
  name: "strided_slice_4"
  op: "StridedSlice"
  input: "t_natoms"
  input: "strided_slice_4/stack"
  input: "strided_slice_4/stack_1"
  input: "strided_slice_4/stack_2"
  attr {
    key: "Index"
    value {
      type: DT_INT32
    }
  }
  attr {
    key: "T"
    value {
      type: DT_INT32
    }
  }
  attr {
    key: "begin_mask"
    value {
      i: 0
    }
  }
  attr {
    key: "ellipsis_mask"
    value {
      i: 0
    }
  }
  attr {
    key: "end_mask"
    value {
      i: 0
    }
  }
  attr {
    key: "new_axis_mask"
    value {
      i: 0
    }
  }
  attr {
    key: "shrink_axis_mask"
    value {
      i: 1
    }
  }
}
node {
  name: "mul_1/y"
  op: "Const"
  input: "^descrpt_attr/original_sel"
  input: "^descrpt_attr/sel"
  attr {
    key: "dtype"
    value {
      type: DT_INT32
    }
  }
  attr {
    key: "value"
    value {
      tensor {
        dtype: DT_INT32
        tensor_shape {
        }
        int_val: 3
      }
    }
  }
}
node {
  name: "mul_1"
  op: "Mul"
  input: "strided_slice_4"
  input: "mul_1/y"
  attr {
    key: "T"
    value {
      type: DT_INT32
    }
  }
}
node {
  name: "Reshape_2/shape/0"
  op: "Const"
  input: "^descrpt_attr/original_sel"
  input: "^descrpt_attr/sel"
  attr {
    key: "dtype"
    value {
      type: DT_INT32
    }
  }
  attr {
    key: "value"
    value {
      tensor {
        dtype: DT_INT32
        tensor_shape {
        }
        int_val: -1
      }
    }
  }
}
node {
  name: "Reshape_2/shape"
  op: "Pack"
  input: "Reshape_2/shape/0"
  input: "mul_1"
  attr {
    key: "N"
    value {
      i: 2
    }
  }
  attr {
    key: "T"
    value {
      type: DT_INT32
    }
  }
  attr {
    key: "axis"
    value {
      i: 0
    }
  }
}
node {
  name: "Reshape_2"
  op: "Reshape"
  input: "Reshape"
  input: "Reshape_2/shape"
  attr {
    key: "T"
    value {
      type: DT_DOUBLE
    }
  }
  attr {
    key: "Tshape"
    value {
      type: DT_INT32
    }
  }
}
node {
  name: "Reshape_3/shape"
  op: "Const"
  attr {
    key: "dtype"
    value {
      type: DT_INT32
    }
  }
  attr {
    key: "value"
    value {
      tensor {
        dtype: DT_INT32
        tensor_shape {
          dim {
            size: 2
          }
        }
        tensor_content: "\377\377\377\377\t\000\000\000"
      }
    }
  }
}
node {
  name: "Reshape_3"
  op: "Reshape"
  input: "t_box"
  input: "Reshape_3/shape"
  attr {
    key: "T"
    value {
      type: DT_DOUBLE
    }
  }
  attr {
    key: "Tshape"
    value {
      type: DT_INT32
    }
  }
}
node {
  name: "strided_slice_5/stack"
  op: "Const"
  attr {
    key: "dtype"
    value {
      type: DT_INT32
    }
  }
  attr {
    key: "value"
    value {
      tensor {
        dtype: DT_INT32
        tensor_shape {
          dim {
            size: 1
          }
        }
        int_val: 1
      }
    }
  }
}
node {
  name: "strided_slice_5/stack_1"
  op: "Const"
  attr {
    key: "dtype"
    value {
      type: DT_INT32
    }
  }
  attr {
    key: "value"
    value {
      tensor {
        dtype: DT_INT32
        tensor_shape {
          dim {
            size: 1
          }
        }
        int_val: 2
      }
    }
  }
}
node {
  name: "strided_slice_5/stack_2"
  op: "Const"
  attr {
    key: "dtype"
    value {
      type: DT_INT32
    }
  }
  attr {
    key: "value"
    value {
      tensor {
        dtype: DT_INT32
        tensor_shape {
          dim {
            size: 1
          }
        }
        int_val: 1
      }
    }
  }
}
node {
  name: "strided_slice_5"
  op: "StridedSlice"
  input: "t_natoms"
  input: "strided_slice_5/stack"
  input: "strided_slice_5/stack_1"
  input: "strided_slice_5/stack_2"
  attr {
    key: "Index"
    value {
      type: DT_INT32
    }
  }
  attr {
    key: "T"
    value {
      type: DT_INT32
    }
  }
  attr {
    key: "begin_mask"
    value {
      i: 0
    }
  }
  attr {
    key: "ellipsis_mask"
    value {
      i: 0
    }
  }
  attr {
    key: "end_mask"
    value {
      i: 0
    }
  }
  attr {
    key: "new_axis_mask"
    value {
      i: 0
    }
  }
  attr {
    key: "shrink_axis_mask"
    value {
      i: 1
    }
  }
}
node {
  name: "Reshape_4/shape/0"
  op: "Const"
  attr {
    key: "dtype"
    value {
      type: DT_INT32
    }
  }
  attr {
    key: "value"
    value {
      tensor {
        dtype: DT_INT32
        tensor_shape {
        }
        int_val: -1
      }
    }
  }
}
node {
  name: "Reshape_4/shape"
  op: "Pack"
  input: "Reshape_4/shape/0"
  input: "strided_slice_5"
  attr {
    key: "N"
    value {
      i: 2
    }
  }
  attr {
    key: "T"
    value {
      type: DT_INT32
    }
  }
  attr {
    key: "axis"
    value {
      i: 0
    }
  }
}
node {
  name: "Reshape_4"
  op: "Reshape"
  input: "Reshape_1"
  input: "Reshape_4/shape"
  attr {
    key: "T"
    value {
      type: DT_INT32
    }
  }
  attr {
    key: "Tshape"
    value {
      type: DT_INT32
    }
  }
}
node {
  name: "ProdEnvMatA"
  op: "ProdEnvMatA"
  input: "Reshape_2"
  input: "Reshape_4"
  input: "t_natoms"
  input: "Reshape_3"
  input: "t_mesh"
  input: "descrpt_attr/t_avg/read"
  input: "descrpt_attr/t_std/read"
  attr {
    key: "T"
    value {
      type: DT_DOUBLE
    }
  }
  attr {
    key: "rcut_a"
    value {
      f: -1.0
    }
  }
  attr {
    key: "rcut_r"
    value {
      f: 6.0
    }
  }
  attr {
    key: "rcut_r_smth"
    value {
      f: 0.5
    }
  }
  attr {
    key: "sel_a"
    value {
      list {
        i: 46
        i: 92
      }
    }
  }
  attr {
    key: "sel_r"
    value {
      list {
        i: 0
        i: 0
      }
    }
  }
}
node {
  name: "Reshape_5/shape"
  op: "Const"
  attr {
    key: "dtype"
    value {
      type: DT_INT32
    }
  }
  attr {
    key: "value"
    value {
      tensor {
        dtype: DT_INT32
        tensor_shape {
          dim {
            size: 2
          }
        }
        tensor_content: "\377\377\377\377(\002\000\000"
      }
    }
  }
}
node {
  name: "Reshape_5"
  op: "Reshape"
  input: "ProdEnvMatA"
  input: "Reshape_5/shape"
  attr {
    key: "T"
    value {
      type: DT_DOUBLE
    }
  }
  attr {
    key: "Tshape"
    value {
      type: DT_INT32
    }
  }
}
node {
  name: "o_rmat"
  op: "Identity"
  input: "Reshape_5"
  attr {
    key: "T"
    value {
      type: DT_DOUBLE
    }
  }
}
node {
  name: "o_rmat_deriv"
  op: "Identity"
  input: "ProdEnvMatA:1"
  attr {
    key: "T"
    value {
      type: DT_DOUBLE
    }
  }
}
node {
  name: "o_rij"
  op: "Identity"
  input: "ProdEnvMatA:2"
  attr {
    key: "T"
    value {
      type: DT_DOUBLE
    }
  }
}
node {
  name: "o_nlist"
  op: "Identity"
  input: "ProdEnvMatA:3"
  attr {
    key: "T"
    value {
      type: DT_INT32
    }
  }
}
node {
  name: "strided_slice_6/stack"
  op: "Const"
  attr {
    key: "dtype"
    value {
      type: DT_INT32
    }
  }
  attr {
    key: "value"
    value {
      tensor {
        dtype: DT_INT32
        tensor_shape {
          dim {
            size: 1
          }
        }
        int_val: 0
      }
    }
  }
}
node {
  name: "strided_slice_6/stack_1"
  op: "Const"
  attr {
    key: "dtype"
    value {
      type: DT_INT32
    }
  }
  attr {
    key: "value"
    value {
      tensor {
        dtype: DT_INT32
        tensor_shape {
          dim {
            size: 1
          }
        }
        int_val: 1
      }
    }
  }
}
node {
  name: "strided_slice_6/stack_2"
  op: "Const"
  attr {
    key: "dtype"
    value {
      type: DT_INT32
    }
  }
  attr {
    key: "value"
    value {
      tensor {
        dtype: DT_INT32
        tensor_shape {
          dim {
            size: 1
          }
        }
        int_val: 1
      }
    }
  }
}
node {
  name: "strided_slice_6"
  op: "StridedSlice"
  input: "t_natoms"
  input: "strided_slice_6/stack"
  input: "strided_slice_6/stack_1"
  input: "strided_slice_6/stack_2"
  attr {
    key: "Index"
    value {
      type: DT_INT32
    }
  }
  attr {
    key: "T"
    value {
      type: DT_INT32
    }
  }
  attr {
    key: "begin_mask"
    value {
      i: 0
    }
  }
  attr {
    key: "ellipsis_mask"
    value {
      i: 0
    }
  }
  attr {
    key: "end_mask"
    value {
      i: 0
    }
  }
  attr {
    key: "new_axis_mask"
    value {
      i: 0
    }
  }
  attr {
    key: "shrink_axis_mask"
    value {
      i: 1
    }
  }
}
node {
  name: "Reshape_6/shape/0"
  op: "Const"
  attr {
    key: "dtype"
    value {
      type: DT_INT32
    }
  }
  attr {
    key: "value"
    value {
      tensor {
        dtype: DT_INT32
        tensor_shape {
        }
        int_val: -1
      }
    }
  }
}
node {
  name: "Reshape_6/shape/2"
  op: "Const"
  attr {
    key: "dtype"
    value {
      type: DT_INT32
    }
  }
  attr {
    key: "value"
    value {
      tensor {
        dtype: DT_INT32
        tensor_shape {
        }
        int_val: 552
      }
    }
  }
}
node {
  name: "Reshape_6/shape"
  op: "Pack"
  input: "Reshape_6/shape/0"
  input: "strided_slice_6"
  input: "Reshape_6/shape/2"
  attr {
    key: "N"
    value {
      i: 3
    }
  }
  attr {
    key: "T"
    value {
      type: DT_INT32
    }
  }
  attr {
    key: "axis"
    value {
      i: 0
    }
  }
}
node {
  name: "Reshape_6"
  op: "Reshape"
  input: "o_rmat"
  input: "Reshape_6/shape"
  attr {
    key: "T"
    value {
      type: DT_DOUBLE
    }
  }
  attr {
    key: "Tshape"
    value {
      type: DT_INT32
    }
  }
}
node {
  name: "strided_slice_7/stack"
  op: "Const"
  attr {
    key: "dtype"
    value {
      type: DT_INT32
    }
  }
  attr {
    key: "value"
    value {
      tensor {
        dtype: DT_INT32
        tensor_shape {
          dim {
            size: 1
          }
        }
        int_val: 2
      }
    }
  }
}
node {
  name: "strided_slice_7/stack_1"
  op: "Const"
  attr {
    key: "dtype"
    value {
      type: DT_INT32
    }
  }
  attr {
    key: "value"
    value {
      tensor {
        dtype: DT_INT32
        tensor_shape {
          dim {
            size: 1
          }
        }
        int_val: 3
      }
    }
  }
}
node {
  name: "strided_slice_7/stack_2"
  op: "Const"
  attr {
    key: "dtype"
    value {
      type: DT_INT32
    }
  }
  attr {
    key: "value"
    value {
      tensor {
        dtype: DT_INT32
        tensor_shape {
          dim {
            size: 1
          }
        }
        int_val: 1
      }
    }
  }
}
node {
  name: "strided_slice_7"
  op: "StridedSlice"
  input: "t_natoms"
  input: "strided_slice_7/stack"
  input: "strided_slice_7/stack_1"
  input: "strided_slice_7/stack_2"
  attr {
    key: "Index"
    value {
      type: DT_INT32
    }
  }
  attr {
    key: "T"
    value {
      type: DT_INT32
    }
  }
  attr {
    key: "begin_mask"
    value {
      i: 0
    }
  }
  attr {
    key: "ellipsis_mask"
    value {
      i: 0
    }
  }
  attr {
    key: "end_mask"
    value {
      i: 0
    }
  }
  attr {
    key: "new_axis_mask"
    value {
      i: 0
    }
  }
  attr {
    key: "shrink_axis_mask"
    value {
      i: 1
    }
  }
}
node {
  name: "Slice/begin"
  op: "Const"
  attr {
    key: "dtype"
    value {
      type: DT_INT32
    }
  }
  attr {
    key: "value"
    value {
      tensor {
        dtype: DT_INT32
        tensor_shape {
          dim {
            size: 3
          }
        }
        tensor_content: "\000\000\000\000\000\000\000\000\000\000\000\000"
      }
    }
  }
}
node {
  name: "Slice/size/0"
  op: "Const"
  attr {
    key: "dtype"
    value {
      type: DT_INT32
    }
  }
  attr {
    key: "value"
    value {
      tensor {
        dtype: DT_INT32
        tensor_shape {
        }
        int_val: -1
      }
    }
  }
}
node {
  name: "Slice/size/2"
  op: "Const"
  attr {
    key: "dtype"
    value {
      type: DT_INT32
    }
  }
  attr {
    key: "value"
    value {
      tensor {
        dtype: DT_INT32
        tensor_shape {
        }
        int_val: -1
      }
    }
  }
}
node {
  name: "Slice/size"
  op: "Pack"
  input: "Slice/size/0"
  input: "strided_slice_7"
  input: "Slice/size/2"
  attr {
    key: "N"
    value {
      i: 3
    }
  }
  attr {
    key: "T"
    value {
      type: DT_INT32
    }
  }
  attr {
    key: "axis"
    value {
      i: 0
    }
  }
}
node {
  name: "Slice"
  op: "Slice"
  input: "Reshape_6"
  input: "Slice/begin"
  input: "Slice/size"
  attr {
    key: "Index"
    value {
      type: DT_INT32
    }
  }
  attr {
    key: "T"
    value {
      type: DT_DOUBLE
    }
  }
}
node {
  name: "Reshape_7/shape"
  op: "Const"
  attr {
    key: "dtype"
    value {
      type: DT_INT32
    }
  }
  attr {
    key: "value"
    value {
      tensor {
        dtype: DT_INT32
        tensor_shape {
          dim {
            size: 2
          }
        }
        tensor_content: "\377\377\377\377(\002\000\000"
      }
    }
  }
}
node {
  name: "Reshape_7"
  op: "Reshape"
  input: "Slice"
  input: "Reshape_7/shape"
  attr {
    key: "T"
    value {
      type: DT_DOUBLE
    }
  }
  attr {
    key: "Tshape"
    value {
      type: DT_INT32
    }
  }
}
node {
  name: "filter_type_0/Slice/begin"
  op: "Const"
  attr {
    key: "dtype"
    value {
      type: DT_INT32
    }
  }
  attr {
    key: "value"
    value {
      tensor {
        dtype: DT_INT32
        tensor_shape {
          dim {
            size: 2
          }
        }
        tensor_content: "\000\000\000\000\000\000\000\000"
      }
    }
  }
}
node {
  name: "filter_type_0/Slice/size"
  op: "Const"
  attr {
    key: "dtype"
    value {
      type: DT_INT32
    }
  }
  attr {
    key: "value"
    value {
      tensor {
        dtype: DT_INT32
        tensor_shape {
          dim {
            size: 2
          }
        }
        tensor_content: "\377\377\377\377\270\000\000\000"
      }
    }
  }
}
node {
  name: "filter_type_0/Slice"
  op: "Slice"
  input: "Reshape_7"
  input: "filter_type_0/Slice/begin"
  input: "filter_type_0/Slice/size"
  attr {
    key: "Index"
    value {
      type: DT_INT32
    }
  }
  attr {
    key: "T"
    value {
      type: DT_DOUBLE
    }
  }
}
node {
  name: "filter_type_0/Shape"
  op: "Shape"
  input: "filter_type_0/Slice"
  attr {
    key: "T"
    value {
      type: DT_DOUBLE
    }
  }
  attr {
    key: "out_type"
    value {
      type: DT_INT32
    }
  }
}
node {
  name: "filter_type_0/strided_slice/stack"
  op: "Const"
  attr {
    key: "dtype"
    value {
      type: DT_INT32
    }
  }
  attr {
    key: "value"
    value {
      tensor {
        dtype: DT_INT32
        tensor_shape {
          dim {
            size: 1
          }
        }
        int_val: 0
      }
    }
  }
}
node {
  name: "filter_type_0/strided_slice/stack_1"
  op: "Const"
  attr {
    key: "dtype"
    value {
      type: DT_INT32
    }
  }
  attr {
    key: "value"
    value {
      tensor {
        dtype: DT_INT32
        tensor_shape {
          dim {
            size: 1
          }
        }
        int_val: 1
      }
    }
  }
}
node {
  name: "filter_type_0/strided_slice/stack_2"
  op: "Const"
  attr {
    key: "dtype"
    value {
      type: DT_INT32
    }
  }
  attr {
    key: "value"
    value {
      tensor {
        dtype: DT_INT32
        tensor_shape {
          dim {
            size: 1
          }
        }
        int_val: 1
      }
    }
  }
}
node {
  name: "filter_type_0/strided_slice"
  op: "StridedSlice"
  input: "filter_type_0/Shape"
  input: "filter_type_0/strided_slice/stack"
  input: "filter_type_0/strided_slice/stack_1"
  input: "filter_type_0/strided_slice/stack_2"
  attr {
    key: "Index"
    value {
      type: DT_INT32
    }
  }
  attr {
    key: "T"
    value {
      type: DT_INT32
    }
  }
  attr {
    key: "begin_mask"
    value {
      i: 0
    }
  }
  attr {
    key: "ellipsis_mask"
    value {
      i: 0
    }
  }
  attr {
    key: "end_mask"
    value {
      i: 0
    }
  }
  attr {
    key: "new_axis_mask"
    value {
      i: 0
    }
  }
  attr {
    key: "shrink_axis_mask"
    value {
      i: 1
    }
  }
}
node {
  name: "filter_type_0/Reshape/shape"
  op: "Const"
  attr {
    key: "dtype"
    value {
      type: DT_INT32
    }
  }
  attr {
    key: "value"
    value {
      tensor {
        dtype: DT_INT32
        tensor_shape {
          dim {
            size: 2
          }
        }
        tensor_content: "\377\377\377\377\004\000\000\000"
      }
    }
  }
}
node {
  name: "filter_type_0/Reshape"
  op: "Reshape"
  input: "filter_type_0/Slice"
  input: "filter_type_0/Reshape/shape"
  attr {
    key: "T"
    value {
      type: DT_DOUBLE
    }
  }
  attr {
    key: "Tshape"
    value {
      type: DT_INT32
    }
  }
}
node {
  name: "filter_type_0/Slice_1/begin"
  op: "Const"
  attr {
    key: "dtype"
    value {
      type: DT_INT32
    }
  }
  attr {
    key: "value"
    value {
      tensor {
        dtype: DT_INT32
        tensor_shape {
          dim {
            size: 2
          }
        }
        tensor_content: "\000\000\000\000\000\000\000\000"
      }
    }
  }
}
node {
  name: "filter_type_0/Slice_1/size"
  op: "Const"
  attr {
    key: "dtype"
    value {
      type: DT_INT32
    }
  }
  attr {
    key: "value"
    value {
      tensor {
        dtype: DT_INT32
        tensor_shape {
          dim {
            size: 2
          }
        }
        tensor_content: "\377\377\377\377\001\000\000\000"
      }
    }
  }
}
node {
  name: "filter_type_0/Slice_1"
  op: "Slice"
  input: "filter_type_0/Reshape"
  input: "filter_type_0/Slice_1/begin"
  input: "filter_type_0/Slice_1/size"
  attr {
    key: "Index"
    value {
      type: DT_INT32
    }
  }
  attr {
    key: "T"
    value {
      type: DT_DOUBLE
    }
  }
}
node {
  name: "filter_type_0/Reshape_1/shape"
  op: "Const"
  attr {
    key: "dtype"
    value {
      type: DT_INT32
    }
  }
  attr {
    key: "value"
    value {
      tensor {
        dtype: DT_INT32
        tensor_shape {
          dim {
            size: 2
          }
        }
        tensor_content: "\377\377\377\377\001\000\000\000"
      }
    }
  }
}
node {
  name: "filter_type_0/Reshape_1"
  op: "Reshape"
  input: "filter_type_0/Slice_1"
  input: "filter_type_0/Reshape_1/shape"
  attr {
    key: "T"
    value {
      type: DT_DOUBLE
    }
  }
  attr {
    key: "Tshape"
    value {
      type: DT_INT32
    }
  }
}
node {
  name: "filter_type_0/matrix_1_0"
  op: "Const"
  attr {
    key: "dtype"
    value {
      type: DT_DOUBLE
    }
  }
  attr {
    key: "value"
    value {
      tensor {
        dtype: DT_DOUBLE
        tensor_shape {
          dim {
            size: 1
          }
          dim {
            size: 2
          }
        }
        tensor_content: "\254\362\023I\006\244\261\277+\'z\357\345\244\340?"
      }
    }
  }
}
node {
  name: "filter_type_0/matrix_1_0/read"
  op: "Identity"
  input: "filter_type_0/matrix_1_0"
  attr {
    key: "T"
    value {
      type: DT_DOUBLE
    }
  }
  attr {
    key: "_class"
    value {
      list {
        s: "loc:@filter_type_0/matrix_1_0"
      }
    }
  }
}
node {
  name: "filter_type_0/bias_1_0"
  op: "Const"
  attr {
    key: "dtype"
    value {
      type: DT_DOUBLE
    }
  }
  attr {
    key: "value"
    value {
      tensor {
        dtype: DT_DOUBLE
        tensor_shape {
          dim {
            size: 2
          }
        }
        tensor_content: "U \317W\224l\336\277+\2345\350\311\230\000\300"
      }
    }
  }
}
node {
  name: "filter_type_0/bias_1_0/read"
  op: "Identity"
  input: "filter_type_0/bias_1_0"
  attr {
    key: "T"
    value {
      type: DT_DOUBLE
    }
  }
  attr {
    key: "_class"
    value {
      list {
        s: "loc:@filter_type_0/bias_1_0"
      }
    }
  }
}
node {
  name: "filter_type_0/MatMul"
  op: "MatMul"
  input: "filter_type_0/Reshape_1"
  input: "filter_type_0/matrix_1_0/read"
  attr {
    key: "T"
    value {
      type: DT_DOUBLE
    }
  }
  attr {
    key: "grad_a"
    value {
      b: false
    }
  }
  attr {
    key: "grad_b"
    value {
      b: false
    }
  }
  attr {
    key: "transpose_a"
    value {
      b: false
    }
  }
  attr {
    key: "transpose_b"
    value {
      b: false
    }
  }
}
node {
  name: "filter_type_0/BiasAdd"
  op: "BiasAdd"
  input: "filter_type_0/MatMul"
  input: "filter_type_0/bias_1_0/read"
  attr {
    key: "T"
    value {
      type: DT_DOUBLE
    }
  }
  attr {
    key: "data_format"
    value {
      s: "NHWC"
    }
  }
}
node {
  name: "filter_type_0/Tanh"
  op: "Tanh"
  input: "filter_type_0/BiasAdd"
  attr {
    key: "T"
    value {
      type: DT_DOUBLE
    }
  }
}
node {
  name: "filter_type_0/Reshape_2/shape"
  op: "Const"
  attr {
    key: "dtype"
    value {
      type: DT_INT32
    }
  }
  attr {
    key: "value"
    value {
      tensor {
        dtype: DT_INT32
        tensor_shape {
          dim {
            size: 2
          }
        }
        tensor_content: "\377\377\377\377\002\000\000\000"
      }
    }
  }
}
node {
  name: "filter_type_0/Reshape_2"
  op: "Reshape"
  input: "filter_type_0/Tanh"
  input: "filter_type_0/Reshape_2/shape"
  attr {
    key: "T"
    value {
      type: DT_DOUBLE
    }
  }
  attr {
    key: "Tshape"
    value {
      type: DT_INT32
    }
  }
}
node {
  name: "filter_type_0/concat/axis"
  op: "Const"
  attr {
    key: "dtype"
    value {
      type: DT_INT32
    }
  }
  attr {
    key: "value"
    value {
      tensor {
        dtype: DT_INT32
        tensor_shape {
        }
        int_val: 1
      }
    }
  }
}
node {
  name: "filter_type_0/concat"
  op: "ConcatV2"
  input: "filter_type_0/Reshape_1"
  input: "filter_type_0/Reshape_1"
  input: "filter_type_0/concat/axis"
  attr {
    key: "N"
    value {
      i: 2
    }
  }
  attr {
    key: "T"
    value {
      type: DT_DOUBLE
    }
  }
  attr {
    key: "Tidx"
    value {
      type: DT_INT32
    }
  }
}
node {
  name: "filter_type_0/add"
  op: "AddV2"
  input: "filter_type_0/concat"
  input: "filter_type_0/Reshape_2"
  attr {
    key: "T"
    value {
      type: DT_DOUBLE
    }
  }
}
node {
  name: "filter_type_0/matrix_2_0"
  op: "Const"
  attr {
    key: "dtype"
    value {
      type: DT_DOUBLE
    }
  }
  attr {
    key: "value"
    value {
      tensor {
        dtype: DT_DOUBLE
        tensor_shape {
          dim {
            size: 2
          }
          dim {
            size: 5
          }
        }
        tensor_content: "\234\235\313\246\234\016\257?w\337\037\203\017\316\311?\037\026U\203GF\331\277\330\362\243Lt\331\314?\375]\363z\177\000\235?\274\203\376\251v\027\347\277u7V\203l\024\326?\001\364\207\207\316\203\270\277\362\306xuJ\341\310?\2777\024h\333!\343?"
      }
    }
  }
}
node {
  name: "filter_type_0/matrix_2_0/read"
  op: "Identity"
  input: "filter_type_0/matrix_2_0"
  attr {
    key: "T"
    value {
      type: DT_DOUBLE
    }
  }
  attr {
