node {
  name: "train_attr/min_nbor_dist"
  op: "Const"
  attr {
    key: "dtype"
    value {
      type: DT_DOUBLE
    }
  }
  attr {
    key: "value"
    value {
      tensor {
        dtype: DT_DOUBLE
        tensor_shape {
        }
        double_val: 0.8543231368574147
      }
    }
  }
}
node {
  name: "train_attr/training_script"
  op: "Const"
  attr {
    key: "dtype"
    value {
      type: DT_STRING
    }
  }
  attr {
    key: "value"
    value {
      tensor {
        dtype: DT_STRING
        tensor_shape {
        }
        string_val: "{\"model\":{\"type_map\":[\"O\",\"H\"],\"descriptor\":{\"type\":\"hybrid\",\"list\":[{\"type\":\"se_e2_a\",\"sel\":[20,40],\"rcut_smth\":0.5,\"rcut\":4.0,\"neuron\":[2,5,10],\"resnet_dt\":false,\"axis_neuron\":8,\"seed\":1,\"activation_function\":\"tanh\",\"type_one_side\":false,\"precision\":\"default\",\"trainable\":true,\"exclude_types\":[],\"set_davg_zero\":false},{\"type\":\"se_e2_r\",\"sel\":[46,92],\"rcut_smth\":0.5,\"rcut\":6.0,\"neuron\":[1,2,4],\"resnet_dt\":false,\"seed\":1,\"activation_function\":\"tanh\",\"type_one_side\":false,\"precision\":\"default\",\"trainable\":true,\"exclude_types\":[],\"set_davg_zero\":false}]},\"fitting_net\":{\"neuron\":[10,10,10],\"resnet_dt\":true,\"seed\":1,\"type\":\"ener\",\"numb_fparam\":0,\"numb_aparam\":0,\"activation_function\":\"tanh\",\"precision\":\"default\",\"trainable\":true,\"rcond\":0.001,\"atom_ener\":[],\"use_aparam_as_mask\":false},\"modifier\":{\"type\":\"dipole_charge\",\"model_name\":\"lrdipole.pb\",\"model_charge_map\":[-8],\"sys_charge_map\":[6,1],\"ewald_h\":1.0,\"ewald_beta\":0.4},\"data_stat_nbatch\":10,\"data_stat_protect\":0.01,\"data_bias_nsample\":10},\"learning_rate\":{\"type\":\"exp\",\"decay_steps\":5000,\"start_lr\":0.001,\"stop_lr\":3.51e-08,\"scale_by_worker\":\"linear\"},\"loss\":{\"type\":\"ener\",\"start_pref_e\":0.02,\"limit_pref_e\":1,\"start_pref_f\":1000,\"limit_pref_f\":1,\"start_pref_v\":0,\"limit_pref_v\":0,\"start_pref_ae\":0.0,\"limit_pref_ae\":0.0,\"start_pref_pf\":0.0,\"limit_pref_pf\":0.0,\"enable_atom_ener_coeff\":false},\"training\":{\"training_data\":{\"systems\":[\"../../4-deep-wannier/data/dpgen.lowd.merged/iter.000016/02.fp/data.012\",\"../../4-deep-wannier/data/dpgen.lowd.merged/iter.000016/02.fp/data.016\",\"../../4-deep-wannier/data/dpgen.lowd.merged/iter.000016/02.fp/data.020\",\"../../4-deep-wannier/data/dpgen.merged/init/00.liq/state.0300.1.00e00.00/vasp/data\",\"../../4-deep-wannier/data/dpgen.merged/init/00.liq/state.0400.1.00e04.00/vasp/data\",\"../../4-deep-wannier/data/dpgen.merged/init/01.liq/state.0300.1.00e00.00/vasp/data\",\"../../4-deep-wannier/data/dpgen.merged/init/01.liq/state.0400.1.00e04.00/vasp/data\",\"../../4-deep-wannier/data/dpgen.merged/iter.000000/02.fp/data.000\",\"../../4-deep-wannier/data/dpgen.merged/iter.000001/02.fp/data.001\",\"../../4-deep-wannier/data/dpgen.merged/iter.000002/02.fp/data.002\",\"../../4-deep-wannier/data/dpgen.merged/iter.000005/02.fp/data.001\",\"../../4-deep-wannier/data/dpgen.merged/iter.000008/02.fp/data.004\",\"../../4-deep-wannier/data/dpgen.merged/iter.000009/02.fp/data.005\",\"../../4-deep-wannier/data/dpgen.merged/iter.000010/02.fp/data.006\"],\"set_prefix\":\"set\",\"batch_size\":\"auto\",\"auto_prob\":\"prob_sys_size\",\"sys_probs\":null},\"numb_steps\":1,\"seed\":1,\"disp_file\":\"lcurve.out\",\"disp_freq\":1,\"save_freq\":1,\"validation_data\":null,\"save_ckpt\":\"model.ckpt\",\"disp_training\":true,\"time_training\":true,\"profiling\":false,\"profiling_file\":\"timeline.json\",\"enable_profiler\":false,\"tensorboard\":false,\"tensorboard_log_dir\":\"log\",\"tensorboard_freq\":1}}"
      }
    }
  }
}
node {
  name: "dipole_charge/model_type"
  op: "Const"
  attr {
    key: "dtype"
    value {
      type: DT_STRING
    }
  }
  attr {
    key: "value"
    value {
      tensor {
        dtype: DT_STRING
        tensor_shape {
        }
        string_val: "original_model"
      }
    }
  }
}
node {
  name: "dipole_charge/t_box"
  op: "Placeholder"
  attr {
    key: "dtype"
    value {
      type: DT_DOUBLE
    }
  }
  attr {
    key: "shape"
    value {
      shape {
        dim {
          size: -1
        }
      }
    }
  }
}
node {
  name: "dipole_charge/t_coord"
  op: "Placeholder"
  attr {
    key: "dtype"
    value {
      type: DT_DOUBLE
    }
  }
  attr {
    key: "shape"
    value {
      shape {
        dim {
          size: -1
        }
      }
    }
  }
}
node {
  name: "dipole_charge/t_type"
  op: "Placeholder"
  attr {
    key: "dtype"
    value {
      type: DT_INT32
    }
  }
  attr {
    key: "shape"
    value {
      shape {
        dim {
          size: -1
        }
      }
    }
  }
}
node {
  name: "dipole_charge/t_natoms"
  op: "Placeholder"
  attr {
    key: "dtype"
    value {
      type: DT_INT32
    }
  }
  attr {
    key: "shape"
    value {
      shape {
        dim {
          size: 4
        }
      }
    }
  }
}
node {
  name: "dipole_charge/t_mesh"
  op: "Placeholder"
  attr {
    key: "dtype"
    value {
      type: DT_INT32
    }
  }
  attr {
    key: "shape"
    value {
      shape {
        dim {
          size: -1
        }
      }
    }
  }
}
node {
  name: "dipole_charge/model_attr/tmap"
  op: "Const"
  attr {
    key: "dtype"
    value {
      type: DT_STRING
    }
  }
  attr {
    key: "value"
    value {
      tensor {
        dtype: DT_STRING
        tensor_shape {
        }
        string_val: "O H"
      }
    }
  }
}
node {
  name: "dipole_charge/model_attr/sel_type"
  op: "Const"
  attr {
    key: "dtype"
    value {
      type: DT_INT32
    }
  }
  attr {
    key: "value"
    value {
      tensor {
        dtype: DT_INT32
        tensor_shape {
          dim {
            size: 1
          }
        }
        int_val: 0
      }
    }
  }
}
node {
  name: "dipole_charge/model_attr/model_type"
  op: "Const"
  attr {
    key: "dtype"
    value {
      type: DT_STRING
    }
  }
  attr {
    key: "value"
    value {
      tensor {
        dtype: DT_STRING
        tensor_shape {
        }
        string_val: "dipole"
      }
    }
  }
}
node {
  name: "dipole_charge/model_attr/model_version"
  op: "Const"
  attr {
    key: "dtype"
    value {
      type: DT_STRING
    }
  }
  attr {
    key: "value"
    value {
      tensor {
        dtype: DT_STRING
        tensor_shape {
        }
        string_val: "1.1"
      }
    }
  }
}
node {
  name: "dipole_charge/model_attr/output_dim"
  op: "Const"
  attr {
    key: "dtype"
    value {
      type: DT_INT32
    }
  }
  attr {
    key: "value"
    value {
      tensor {
        dtype: DT_INT32
        tensor_shape {
        }
        int_val: 3
      }
    }
  }
}
node {
  name: "dipole_charge/strided_slice/stack"
  op: "Const"
  attr {
    key: "dtype"
    value {
      type: DT_INT32
    }
  }
  attr {
    key: "value"
    value {
      tensor {
        dtype: DT_INT32
        tensor_shape {
          dim {
            size: 1
          }
        }
        int_val: 2
      }
    }
  }
}
node {
  name: "dipole_charge/strided_slice/stack_1"
  op: "Const"
  attr {
    key: "dtype"
    value {
      type: DT_INT32
    }
  }
  attr {
    key: "value"
    value {
      tensor {
        dtype: DT_INT32
        tensor_shape {
          dim {
            size: 1
          }
        }
        int_val: 3
      }
    }
  }
}
node {
  name: "dipole_charge/strided_slice/stack_2"
  op: "Const"
  attr {
    key: "dtype"
    value {
      type: DT_INT32
    }
  }
  attr {
    key: "value"
    value {
      tensor {
        dtype: DT_INT32
        tensor_shape {
          dim {
            size: 1
          }
        }
        int_val: 1
      }
    }
  }
}
node {
  name: "dipole_charge/strided_slice"
  op: "StridedSlice"
  input: "dipole_charge/t_natoms"
  input: "dipole_charge/strided_slice/stack"
  input: "dipole_charge/strided_slice/stack_1"
  input: "dipole_charge/strided_slice/stack_2"
  attr {
    key: "Index"
    value {
      type: DT_INT32
    }
  }
  attr {
    key: "T"
    value {
      type: DT_INT32
    }
  }
  attr {
    key: "begin_mask"
    value {
      i: 0
    }
  }
  attr {
    key: "ellipsis_mask"
    value {
      i: 0
    }
  }
  attr {
    key: "end_mask"
    value {
      i: 0
    }
  }
  attr {
    key: "new_axis_mask"
    value {
      i: 0
    }
  }
  attr {
    key: "shrink_axis_mask"
    value {
      i: 1
    }
  }
}
node {
  name: "dipole_charge/add/x"
  op: "Const"
  attr {
    key: "dtype"
    value {
      type: DT_INT32
    }
  }
  attr {
    key: "value"
    value {
      tensor {
        dtype: DT_INT32
        tensor_shape {
        }
        int_val: 0
      }
    }
  }
}
node {
  name: "dipole_charge/add"
  op: "AddV2"
  input: "dipole_charge/add/x"
  input: "dipole_charge/strided_slice"
  attr {
    key: "T"
    value {
      type: DT_INT32
    }
  }
}
node {
  name: "dipole_charge/strided_slice_1/stack"
  op: "Const"
  attr {
    key: "dtype"
    value {
      type: DT_INT32
    }
  }
  attr {
    key: "value"
    value {
      tensor {
        dtype: DT_INT32
        tensor_shape {
          dim {
            size: 1
          }
        }
        int_val: 1
      }
    }
  }
}
node {
  name: "dipole_charge/strided_slice_1/stack_1"
  op: "Const"
  attr {
    key: "dtype"
    value {
      type: DT_INT32
    }
  }
  attr {
    key: "value"
    value {
      tensor {
        dtype: DT_INT32
        tensor_shape {
          dim {
            size: 1
          }
        }
        int_val: 2
      }
    }
  }
}
node {
  name: "dipole_charge/strided_slice_1/stack_2"
  op: "Const"
  attr {
    key: "dtype"
    value {
      type: DT_INT32
    }
  }
  attr {
    key: "value"
    value {
      tensor {
        dtype: DT_INT32
        tensor_shape {
          dim {
            size: 1
          }
        }
        int_val: 1
      }
    }
  }
}
node {
  name: "dipole_charge/strided_slice_1"
  op: "StridedSlice"
  input: "dipole_charge/t_natoms"
  input: "dipole_charge/strided_slice_1/stack"
  input: "dipole_charge/strided_slice_1/stack_1"
  input: "dipole_charge/strided_slice_1/stack_2"
  attr {
    key: "Index"
    value {
      type: DT_INT32
    }
  }
  attr {
    key: "T"
    value {
      type: DT_INT32
    }
  }
  attr {
    key: "begin_mask"
    value {
      i: 0
    }
  }
  attr {
    key: "ellipsis_mask"
    value {
      i: 0
    }
  }
  attr {
    key: "end_mask"
    value {
      i: 0
    }
  }
  attr {
    key: "new_axis_mask"
    value {
      i: 0
    }
  }
  attr {
    key: "shrink_axis_mask"
    value {
      i: 1
    }
  }
}
node {
  name: "dipole_charge/mul/y"
  op: "Const"
  attr {
    key: "dtype"
    value {
      type: DT_INT32
    }
  }
  attr {
    key: "value"
    value {
      tensor {
        dtype: DT_INT32
        tensor_shape {
        }
        int_val: 3
      }
    }
  }
}
node {
  name: "dipole_charge/mul"
  op: "Mul"
  input: "dipole_charge/strided_slice_1"
  input: "dipole_charge/mul/y"
  attr {
    key: "T"
    value {
      type: DT_INT32
    }
  }
}
node {
  name: "dipole_charge/Reshape/shape/0"
  op: "Const"
  attr {
    key: "dtype"
    value {
      type: DT_INT32
    }
  }
  attr {
    key: "value"
    value {
      tensor {
        dtype: DT_INT32
        tensor_shape {
        }
        int_val: -1
      }
    }
  }
}
node {
  name: "dipole_charge/Reshape/shape"
  op: "Pack"
  input: "dipole_charge/Reshape/shape/0"
  input: "dipole_charge/mul"
  attr {
    key: "N"
    value {
      i: 2
    }
  }
  attr {
    key: "T"
    value {
      type: DT_INT32
    }
  }
  attr {
    key: "axis"
    value {
      i: 0
    }
  }
}
node {
  name: "dipole_charge/Reshape"
  op: "Reshape"
  input: "dipole_charge/t_coord"
  input: "dipole_charge/Reshape/shape"
  attr {
    key: "T"
    value {
      type: DT_DOUBLE
    }
  }
  attr {
    key: "Tshape"
    value {
      type: DT_INT32
    }
  }
}
node {
  name: "dipole_charge/strided_slice_2/stack"
  op: "Const"
  attr {
    key: "dtype"
    value {
      type: DT_INT32
    }
  }
  attr {
    key: "value"
    value {
      tensor {
        dtype: DT_INT32
        tensor_shape {
          dim {
            size: 1
          }
        }
        int_val: 1
      }
    }
  }
}
node {
  name: "dipole_charge/strided_slice_2/stack_1"
  op: "Const"
  attr {
    key: "dtype"
    value {
      type: DT_INT32
    }
  }
  attr {
    key: "value"
    value {
      tensor {
        dtype: DT_INT32
        tensor_shape {
          dim {
            size: 1
          }
        }
        int_val: 2
      }
    }
  }
}
node {
  name: "dipole_charge/strided_slice_2/stack_2"
  op: "Const"
  attr {
    key: "dtype"
    value {
      type: DT_INT32
    }
  }
  attr {
    key: "value"
    value {
      tensor {
        dtype: DT_INT32
        tensor_shape {
          dim {
            size: 1
          }
        }
        int_val: 1
      }
    }
  }
}
node {
  name: "dipole_charge/strided_slice_2"
  op: "StridedSlice"
  input: "dipole_charge/t_natoms"
  input: "dipole_charge/strided_slice_2/stack"
  input: "dipole_charge/strided_slice_2/stack_1"
  input: "dipole_charge/strided_slice_2/stack_2"
  attr {
    key: "Index"
    value {
      type: DT_INT32
    }
  }
  attr {
    key: "T"
    value {
      type: DT_INT32
    }
  }
  attr {
    key: "begin_mask"
    value {
      i: 0
    }
  }
  attr {
    key: "ellipsis_mask"
    value {
      i: 0
    }
  }
  attr {
    key: "end_mask"
    value {
      i: 0
    }
  }
  attr {
    key: "new_axis_mask"
    value {
      i: 0
    }
  }
  attr {
    key: "shrink_axis_mask"
    value {
      i: 1
    }
  }
}
node {
  name: "dipole_charge/Reshape_1/shape/0"
  op: "Const"
  attr {
    key: "dtype"
    value {
      type: DT_INT32
    }
  }
  attr {
    key: "value"
    value {
      tensor {
        dtype: DT_INT32
        tensor_shape {
        }
        int_val: -1
      }
    }
  }
}
node {
  name: "dipole_charge/Reshape_1/shape"
  op: "Pack"
  input: "dipole_charge/Reshape_1/shape/0"
  input: "dipole_charge/strided_slice_2"
  attr {
    key: "N"
    value {
      i: 2
    }
  }
  attr {
    key: "T"
    value {
      type: DT_INT32
    }
  }
  attr {
    key: "axis"
    value {
      i: 0
    }
  }
}
node {
  name: "dipole_charge/Reshape_1"
  op: "Reshape"
  input: "dipole_charge/t_type"
  input: "dipole_charge/Reshape_1/shape"
  attr {
    key: "T"
    value {
      type: DT_INT32
    }
  }
  attr {
    key: "Tshape"
    value {
      type: DT_INT32
    }
  }
}
node {
  name: "dipole_charge/descrpt_attr/rcut"
  op: "Const"
  attr {
    key: "dtype"
    value {
      type: DT_DOUBLE
    }
  }
  attr {
    key: "value"
    value {
      tensor {
        dtype: DT_DOUBLE
        tensor_shape {
        }
        double_val: 6.0
      }
    }
  }
}
node {
  name: "dipole_charge/descrpt_attr/ntypes"
  op: "Const"
  attr {
    key: "dtype"
    value {
      type: DT_INT32
    }
  }
  attr {
    key: "value"
    value {
      tensor {
        dtype: DT_INT32
        tensor_shape {
        }
        int_val: 2
      }
    }
  }
}
node {
  name: "dipole_charge/descrpt_attr/sel"
  op: "Const"
  attr {
    key: "dtype"
    value {
      type: DT_INT32
    }
  }
  attr {
    key: "value"
    value {
      tensor {
        dtype: DT_INT32
        tensor_shape {
          dim {
            size: 2
          }
        }
        tensor_content: ".\000\000\000\\\000\000\000"
      }
    }
  }
}
node {
  name: "dipole_charge/descrpt_attr/original_sel"
  op: "Const"
  attr {
    key: "dtype"
    value {
      type: DT_INT32
    }
  }
  attr {
    key: "value"
    value {
      tensor {
        dtype: DT_INT32
        tensor_shape {
          dim {
            size: 2
          }
        }
        tensor_content: ".\000\000\000\\\000\000\000"
      }
    }
  }
}
node {
  name: "dipole_charge/descrpt_attr/t_avg"
  op: "Const"
  attr {
    key: "dtype"
    value {
      type: DT_DOUBLE
    }
  }
  attr {
    key: "value"
    value {
      tensor {
        dtype: DT_DOUBLE
        tensor_shape {
          dim {
            size: 2
          }
          dim {
            size: 552
          }
        }
        tensor_content: "%\204\210\024[\221\251?\000\000\000\000\000\000\000\000\000\000\000\000\000\000\000\000\000\000\000\000\000\000\000\000%\204\210\024[\221\251?\000\000\000\000\000\000\000\000\000\000\000\000\000\000\000\000\000\000\000\000\000\000\000\000%\204\210\024[\221\251?\000\000\000\000\000\000\000\000\000\000\000\000\000\000\000\000\000\000\000\000\000\000\000\000%\204\210\024[\221\251?\000\000\000\000\000\000\000\000\000\000\000\000\000\000\000\000\000\000\000\000\000\000\000\000%\204\210\024[\221\251?\000\000\000\000\000\000\000\000\000\000\000\000\000\000\000\000\000\000\000\000\000\000\000\000%\204\210\024[\221\251?\000\000\000\000\000\000\000\000\000\000\000\000\000\000\000\000\000\000\000\000\000\000\000\000%\204\210\024[\221\251?\000\000\000\000\000\000\000\000\000\000\000\000\000\000\000\000\000\000\000\000\000\000\000\000%\204\210\024[\221\251?\000\000\000\000\000\000\000\000\000\000\000\000\000\000\000\000\000\000\000\000\000\000\000\000%\204\210\024[\221\251?\000\000\000\000\000\000\000\000\000\000\000\000\000\000\000\000\000\000\000\000\000\000\000\000%\204\210\024[\221\251?\000\000\000\000\000\000\000\000\000\000\000\000\000\000\000\000\000\000\000\000\000\000\000\000%\204\210\024[\221\251?\000\000\000\000\000\000\000\000\000\000\000\000\000\000\000\000\000\000\000\000\000\000\000\000%\204\210\024[\221\251?\000\000\000\000\000\000\000\000\000\000\000\000\000\000\000\000\000\000\000\000\000\000\000\000%\204\210\024[\221\251?\000\000\000\000\000\000\000\000\000\000\000\000\000\000\000\000\000\000\000\000\000\000\000\000%\204\210\024[\221\251?\000\000\000\000\000\000\000\000\000\000\000\000\000\000\000\000\000\000\000\000\000\000\000\000%\204\210\024[\221\251?\000\000\000\000\000\000\000\000\000\000\000\000\000\000\000\000\000\000\000\000\000\000\000\000%\204\210\024[\221\251?\000\000\000\000\000\000\000\000\000\000\000\000\000\000\000\000\000\000\000\000\000\000\000\000%\204\210\024[\221\251?\000\000\000\000\000\000\000\000\000\000\000\000\000\000\000\000\000\000\000\000\000\000\000\000%\204\210\024[\221\251?\000\000\000\000\000\000\000\000\000\000\000\000\000\000\000\000\000\000\000\000\000\000\000\000%\204\210\024[\221\251?\000\000\000\000\000\000\000\000\000\000\000\000\000\000\000\000\000\000\000\000\000\000\000\000%\204\210\024[\221\251?\000\000\000\000\000\000\000\000\000\000\000\000\000\000\000\000\000\000\000\000\000\000\000\000%\204\210\024[\221\251?\000\000\000\000\000\000\000\000\000\000\000\000\000\000\000\000\000\000\000\000\000\000\000\000%\204\210\024[\221\251?\000\000\000\000\000\000\000\000\000\000\000\000\000\000\000\000\000\000\000\000\000\000\000\000%\204\210\024[\221\251?\000\000\000\000\000\000\000\000\000\000\000\000\000\000\000\000\000\000\000\000\000\000\000\000%\204\210\024[\221\251?\000\000\000\000\000\000\000\000\000\000\000\000\000\000\000\000\000\000\000\000\000\000\000\000%\204\210\024[\221\251?\000\000\000\000\000\000\000\000\000\000\000\000\000\000\000\000\000\000\000\000\000\000\000\000%\204\210\024[\221\251?\000\000\000\000\000\000\000\000\000\000\000\000\000\000\000\000\000\000\000\000\000\000\000\000%\204\210\024[\221\251?\000\000\000\000\000\000\000\000\000\000\000\000\000\000\000\000\000\000\000\000\000\000\000\000%\204\210\024[\221\251?\000\000\000\000\000\000\000\000\000\000\000\000\000\000\000\000\000\000\000\000\000\000\000\000%\204\210\024[\221\251?\000\000\000\000\000\000\000\000\000\000\000\000\000\000\000\000\000\000\000\000\000\000\000\000%\204\210\024[\221\251?\000\000\000\000\000\000\000\000\000\000\000\000\000\000\000\000\000\000\000\000\000\000\000\000%\204\210\024[\221\251?\000\000\000\000\000\000\000\000\000\000\000\000\000\000\000\000\000\000\000\000\000\000\000\000%\204\210\024[\221\251?\000\000\000\000\000\000\000\000\000\000\000\000\000\000\000\000\000\000\000\000\000\000\000\000%\204\210\024[\221\251?\000\000\000\000\000\000\000\000\000\000\000\000\000\000\000\000\000\000\000\000\000\000\000\000%\204\210\024[\221\251?\000\000\000\000\000\000\000\000\000\000\000\000\000\000\000\000\000\000\000\000\000\000\000\000%\204\210\024[\221\251?\000\000\000\000\000\000\000\000\000\000\000\000\000\000\000\000\000\000\000\000\000\000\000\000%\204\210\024[\221\251?\000\000\000\000\000\000\000\000\000\000\000\000\000\000\000\000\000\000\000\000\000\000\000\000%\204\210\024[\221\251?\000\000\000\000\000\000\000\000\000\000\000\000\000\000\000\000\000\000\000\000\000\000\000\000%\204\210\024[\221\251?\000\000\000\000\000\000\000\000\000\000\000\000\000\000\000\000\000\000\000\000\000\000\000\000%\204\210\024[\221\251?\000\000\000\000\000\000\000\000\000\000\000\000\000\000\000\000\000\000\000\000\000\000\000\000%\204\210\024[\221\251?\000\000\000\000\000\000\000\000\000\000\000\000\000\000\000\000\000\000\000\000\000\000\000\000%\204\210\024[\221\251?\000\000\000\000\000\000\000\000\000\000\000\000\000\000\000\000\000\000\000\000\000\000\000\000%\204\210\024[\221\251?\000\000\000\000\000\000\000\000\000\000\000\000\000\000\000\000\000\000\000\000\000\000\000\000%\204\210\024[\221\251?\000\000\000\000\000\000\000\000\000\000\000\000\000\000\000\000\000\000\000\000\000\000\000\000%\204\210\024[\221\251?\000\000\000\000\000\000\000\000\000\000\000\000\000\000\000\000\000\000\000\000\000\000\000\000%\204\210\024[\221\251?\000\000\000\000\000\000\000\000\000\000\000\000\000\000\000\000\000\000\000\000\000\000\000\000%\204\210\024[\221\251?\000\000\000\000\000\000\000\000\000\000\000\000\000\000\000\000\000\000\000\000\000\000\000\000%\204\210\024[\221\251?\000\000\000\000\000\000\000\000\000\000\000\000\000\000\000\000\000\000\000\000\000\000\000\000%\204\210\024[\221\251?\000\000\000\000\000\000\000\000\000\000\000\000\000\000\000\000\000\000\000\000\000\000\000\000%\204\210\024[\221\251?\000\000\000\000\000\000\000\000\000\000\000\000\000\000\000\000\000\000\000\000\000\000\000\000%\204\210\024[\221\251?\000\000\000\000\000\000\000\000\000\000\000\000\000\000\000\000\000\000\000\000\000\000\000\000%\204\210\024[\221\251?\000\000\000\000\000\000\000\000\000\000\000\000\000\000\000\000\000\000\000\000\000\000\000\000%\204\210\024[\221\251?\000\000\000\000\000\000\000\000\000\000\000\000\000\000\000\000\000\000\000\000\000\000\000\000%\204\210\024[\221\251?\000\000\000\000\000\000\000\000\000\000\000\000\000\000\000\000\000\000\000\000\000\000\000\000%\204\210\024[\221\251?\000\000\000\000\000\000\000\000\000\000\000\000\000\000\000\000\000\000\000\000\000\000\000\000%\204\210\024[\221\251?\000\000\000\000\000\000\000\000\000\000\000\000\000\000\000\000\000\000\000\000\000\000\000\000%\204\210\024[\221\251?\000\000\000\000\000\000\000\000\000\000\000\000\000\000\000\000\000\000\000\000\000\000\000\000%\204\210\024[\221\251?\000\000\000\000\000\000\000\000\000\000\000\000\000\000\000\000\000\000\000\000\000\000\000\000%\204\210\024[\221\251?\000\000\000\000\000\000\000\000\000\000\000\000\000\000\000\000\000\000\000\000\000\000\000\000%\204\210\024[\221\251?\000\000\000\000\000\000\000\000\000\000\000\000\000\000\000\000\000\000\000\000\000\000\000\000%\204\210\024[\221\251?\000\000\000\000\000\000\000\000\000\000\000\000\000\000\000\000\000\000\000\000\000\000\000\000%\204\210\024[\221\251?\000\000\000\000\000\000\000\000\000\000\000\000\000\000\000\000\000\000\000\000\000\000\000\000%\204\210\024[\221\251?\000\000\000\000\000\000\000\000\000\000\000\000\000\000\000\000\000\000\000\000\000\000\000\000%\204\210\024[\221\251?\000\000\000\000\000\000\000\000\000\000\000\000\000\000\000\000\000\000\000\000\000\000\000\000%\204\210\024[\221\251?\000\000\000\000\000\000\000\000\000\000\000\000\000\000\000\000\000\000\000\000\000\000\000\000%\204\210\024[\221\251?\000\000\000\000\000\000\000\000\000\000\000\000\000\000\000\000\000\000\000\000\000\000\000\000%\204\210\024[\221\251?\000\000\000\000\000\000\000\000\000\000\000\000\000\000\000\000\000\000\000\000\000\000\000\000%\204\210\024[\221\251?\000\000\000\000\000\000\000\000\000\000\000\000\000\000\000\000\000\000\000\000\000\000\000\000%\204\210\024[\221\251?\000\000\000\000\000\000\000\000\000\000\000\000\000\000\000\000\000\000\000\000\000\000\000\000%\204\210\024[\221\251?\000\000\000\000\000\000\000\000\000\000\000\000\000\000\000\000\000\000\000\000\000\000\000\000%\204\210\024[\221\251?\000\000\000\000\000\000\000\000\000\000\000\000\000\000\000\000\000\000\000\000\000\000\000\000%\204\210\024[\221\251?\000\000\000\000\000\000\000\000\000\000\000\000\000\000\000\000\000\000\000\000\000\000\000\000%\204\210\024[\221\251?\000\000\000\000\000\000\000\000\000\000\000\000\000\000\000\000\000\000\000\000\000\000\000\000%\204\210\024[\221\251?\000\000\000\000\000\000\000\000\000\000\000\000\000\000\000\000\000\000\000\000\000\000\000\000%\204\210\024[\221\251?\000\000\000\000\000\000\000\000\000\000\000\000\000\000\000\000\000\000\000\000\000\000\000\000%\204\210\024[\221\251?\000\000\000\000\000\000\000\000\000\000\000\000\000\000\000\000\000\000\000\000\000\000\000\000%\204\210\024[\221\251?\000\000\000\000\000\000\000\000\000\000\000\000\000\000\000\000\000\000\000\000\000\000\000\000%\204\210\024[\221\251?\000\000\000\000\000\000\000\000\000\000\000\000\000\000\000\000\000\000\000\000\000\000\000\000%\204\210\024[\221\251?\000\000\000\000\000\000\000\000\000\000\000\000\000\000\000\000\000\000\000\000\000\000\000\000%\204\210\024[\221\251?\000\000\000\000\000\000\000\000\000\000\000\000\000\000\000\000\000\000\000\000\000\000\000\000%\204\210\024[\221\251?\000\000\000\000\000\000\000\000\000\000\000\000\000\000\000\000\000\000\000\000\000\000\000\000%\204\210\024[\221\251?\000\000\000\000\000\000\000\000\000\000\000\000\000\000\000\000\000\000\000\000\000\000\000\000%\204\210\024[\221\251?\000\000\000\000\000\000\000\000\000\000\000\000\000\000\000\000\000\000\000\000\000\000\000\000%\204\210\024[\221\251?\000\000\000\000\000\000\000\000\000\000\000\000\000\000\000\000\000\000\000\000\000\000\000\000%\204\210\024[\221\251?\000\000\000\000\000\000\000\000\000\000\000\000\000\000\000\000\000\000\000\000\000\000\000\000%\204\210\024[\221\251?\000\000\000\000\000\000\000\000\000\000\000\000\000\000\000\000\000\000\000\000\000\000\000\000%\204\210\024[\221\251?\000\000\000\000\000\000\000\000\000\000\000\000\000\000\000\000\000\000\000\000\000\000\000\000%\204\210\024[\221\251?\000\000\000\000\000\000\000\000\000\000\000\000\000\000\000\000\000\000\000\000\000\000\000\000%\204\210\024[\221\251?\000\000\000\000\000\000\000\000\000\000\000\000\000\000\000\000\000\000\000\000\000\000\000\000%\204\210\024[\221\251?\000\000\000\000\000\000\000\000\000\000\000\000\000\000\000\000\000\000\000\000\000\000\000\000%\204\210\024[\221\251?\000\000\000\000\000\000\000\000\000\000\000\000\000\000\000\000\000\000\000\000\000\000\000\000%\204\210\024[\221\251?\000\000\000\000\000\000\000\000\000\000\000\000\000\000\000\000\000\000\000\000\000\000\000\000%\204\210\024[\221\251?\000\000\000\000\000\000\000\000\000\000\000\000\000\000\000\000\000\000\000\000\000\000\000\000%\204\210\024[\221\251?\000\000\000\000\000\000\000\000\000\000\000\000\000\000\000\000\000\000\000\000\000\000\000\000%\204\210\024[\221\251?\000\000\000\000\000\000\000\000\000\000\000\000\000\000\000\000\000\000\000\000\000\000\000\000%\204\210\024[\221\251?\000\000\000\000\000\000\000\000\000\000\000\000\000\000\000\000\000\000\000\000\000\000\000\000%\204\210\024[\221\251?\000\000\000\000\000\000\000\000\000\000\000\000\000\000\000\000\000\000\000\000\000\000\000\000%\204\210\024[\221\251?\000\000\000\000\000\000\000\000\000\000\000\000\000\000\000\000\000\000\000\000\000\000\000\000%\204\210\024[\221\251?\000\000\000\000\000\000\000\000\000\000\000\000\000\000\000\000\000\000\000\000\000\000\000\000%\204\210\024[\221\251?\000\000\000\000\000\000\000\000\000\000\000\000\000\000\000\000\000\000\000\000\000\000\000\000%\204\210\024[\221\251?\000\000\000\000\000\000\000\000\000\000\000\000\000\000\000\000\000\000\000\000\000\000\000\000%\204\210\024[\221\251?\000\000\000\000\000\000\000\000\000\000\000\000\000\000\000\000\000\000\000\000\000\000\000\000%\204\210\024[\221\251?\000\000\000\000\000\000\000\000\000\000\000\000\000\000\000\000\000\000\000\000\000\000\000\000%\204\210\024[\221\251?\000\000\000\000\000\000\000\000\000\000\000\000\000\000\000\000\000\000\000\000\000\000\000\000%\204\210\024[\221\251?\000\000\000\000\000\000\000\000\000\000\000\000\000\000\000\000\000\000\000\000\000\000\000\000%\204\210\024[\221\251?\000\000\000\000\000\000\000\000\000\000\000\000\000\000\000\000\000\000\000\000\000\000\000\000%\204\210\024[\221\251?\000\000\000\000\000\000\000\000\000\000\000\000\000\000\000\000\000\000\000\000\000\000\000\000%\204\210\024[\221\251?\000\000\000\000\000\000\000\000\000\000\000\000\000\000\000\000\000\000\000\000\000\000\000\000%\204\210\024[\221\251?\000\000\000\000\000\000\000\000\000\000\000\000\000\000\000\000\000\000\000\000\000\000\000\000%\204\210\024[\221\251?\000\000\000\000\000\000\000\000\000\000\000\000\000\000\000\000\000\000\000\000\000\000\000\000%\204\210\024[\221\251?\000\000\000\000\000\000\000\000\000\000\000\000\000\000\000\000\000\000\000\000\000\000\000\000%\204\210\024[\221\251?\000\000\000\000\000\000\000\000\000\000\000\000\000\000\000\000\000\000\000\000\000\000\000\000%\204\210\024[\221\251?\000\000\000\000\000\000\000\000\000\000\000\000\000\000\000\000\000\000\000\000\000\000\000\000%\204\210\024[\221\251?\000\000\000\000\000\000\000\000\000\000\000\000\000\000\000\000\000\000\000\000\000\000\000\000%\204\210\024[\221\251?\000\000\000\000\000\000\000\000\000\000\000\000\000\000\000\000\000\000\000\000\000\000\000\000%\204\210\024[\221\251?\000\000\000\000\000\000\000\000\000\000\000\000\000\000\000\000\000\000\000\000\000\000\000\000%\204\210\024[\221\251?\000\000\000\000\000\000\000\000\000\000\000\000\000\000\000\000\000\000\000\000\000\000\000\000%\204\210\024[\221\251?\000\000\000\000\000\000\000\000\000\000\000\000\000\000\000\000\000\000\000\000\000\000\000\000%\204\210\024[\221\251?\000\000\000\000\000\000\000\000\000\000\000\000\000\000\000\000\000\000\000\000\000\000\000\000%\204\210\024[\221\251?\000\000\000\000\000\000\000\000\000\000\000\000\000\000\000\000\000\000\000\000\000\000\000\000%\204\210\024[\221\251?\000\000\000\000\000\000\000\000\000\000\000\000\000\000\000\000\000\000\000\000\000\000\000\000%\204\210\024[\221\251?\000\000\000\000\000\000\000\000\000\000\000\000\000\000\000\000\000\000\000\000\000\000\000\000%\204\210\024[\221\251?\000\000\000\000\000\000\000\000\000\000\000\000\000\000\000\000\000\000\000\000\000\000\000\000%\204\210\024[\221\251?\000\000\000\000\000\000\000\000\000\000\000\000\000\000\000\000\000\000\000\000\000\000\000\000%\204\210\024[\221\251?\000\000\000\000\000\000\000\000\000\000\000\000\000\000\000\000\000\000\000\000\000\000\000\000%\204\210\024[\221\251?\000\000\000\000\000\000\000\000\000\000\000\000\000\000\000\000\000\000\000\000\000\000\000\000%\204\210\024[\221\251?\000\000\000\000\000\000\000\000\000\000\000\000\000\000\000\000\000\000\000\000\000\000\000\000%\204\210\024[\221\251?\000\000\000\000\000\000\000\000\000\000\000\000\000\000\000\000\000\000\000\000\000\000\000\000%\204\210\024[\221\251?\000\000\000\000\000\000\000\000\000\000\000\000\000\000\000\000\000\000\000\000\000\000\000\000%\204\210\024[\221\251?\000\000\000\000\000\000\000\000\000\000\000\000\000\000\000\000\000\000\000\000\000\000\000\000%\204\210\024[\221\251?\000\000\000\000\000\000\000\000\000\000\000\000\000\000\000\000\000\000\000\000\000\000\000\000%\204\210\024[\221\251?\000\000\000\000\000\000\000\000\000\000\000\000\000\000\000\000\000\000\000\000\000\000\000\000%\204\210\024[\221\251?\000\000\000\000\000\000\000\000\000\000\000\000\000\000\000\000\000\000\000\000\000\000\000\000%\204\210\024[\221\251?\000\000\000\000\000\000\000\000\000\000\000\000\000\000\000\000\000\000\000\000\000\000\000\000%\204\210\024[\221\251?\000\000\000\000\000\000\000\000\000\000\000\000\000\000\000\000\000\000\000\000\000\000\000\000%\204\210\024[\221\251?\000\000\000\000\000\000\000\000\000\000\000\000\000\000\000\000\000\000\000\000\000\000\000\000%\204\210\024[\221\251?\000\000\000\000\000\000\000\000\000\000\000\000\000\000\000\000\000\000\000\000\000\000\000\000%\204\210\024[\221\251?\000\000\000\000\000\000\000\000\000\000\000\000\000\000\000\000\000\000\000\000\000\000\000\000%\204\210\024[\221\251?\000\000\000\000\000\000\000\000\000\000\000\000\000\000\000\000\000\000\000\000\000\000\000\000\327\314\340$\022l\250?\000\000\000\000\000\000\000\000\000\000\000\000\000\000\000\000\000\000\000\000\000\000\000\000\327\314\340$\022l\250?\000\000\000\000\000\000\000\000\000\000\000\000\000\000\000\000\000\000\000\000\000\000\000\000\327\314\340$\022l\250?\000\000\000\000\000\000\000\000\000\000\000\000\000\000\000\000\000\000\000\000\000\000\000\000\327\314\340$\022l\250?\000\000\000\000\000\000\000\000\000\000\000\000\000\000\000\000\000\000\000\000\000\000\000\000\327\314\340$\022l\250?\000\000\000\000\000\000\000\000\000\000\000\000\000\000\000\000\000\000\000\000\000\000\000\000\327\314\340$\022l\250?\000\000\000\000\000\000\000\000\000\000\000\000\000\000\000\000\000\000\000\000\000\000\000\000\327\314\340$\022l\250?\000\000\000\000\000\000\000\000\000\000\000\000\000\000\000\000\000\000\000\000\000\000\000\000\327\314\340$\022l\250?\000\000\000\000\000\000\000\000\000\000\000\000\000\000\000\000\000\000\000\000\000\000\000\000\327\314\340$\022l\250?\000\000\000\000\000\000\000\000\000\000\000\000\000\000\000\000\000\000\000\000\000\000\000\000\327\314\340$\022l\250?\000\000\000\000\000\000\000\000\000\000\000\000\000\000\000\000\000\000\000\000\000\000\000\000\327\314\340$\022l\250?\000\000\000\000\000\000\000\000\000\000\000\000\000\000\000\000\000\000\000\000\000\000\000\000\327\314\340$\022l\250?\000\000\000\000\000\000\000\000\000\000\000\000\000\000\000\000\000\000\000\000\000\000\000\000\327\314\340$\022l\250?\000\000\000\000\000\000\000\000\000\000\000\000\000\000\000\000\000\000\000\000\000\000\000\000\327\314\340$\022l\250?\000\000\000\000\000\000\000\000\000\000\000\000\000\000\000\000\000\000\000\000\000\000\000\000\327\314\340$\022l\250?\000\000\000\000\000\000\000\000\000\000\000\000\000\000\000\000\000\000\000\000\000\000\000\000\327\314\340$\022l\250?\000\000\000\000\000\000\000\000\000\000\000\000\000\000\000\000\000\000\000\000\000\000\000\000\327\314\340$\022l\250?\000\000\000\000\000\000\000\000\000\000\000\000\000\000\000\000\000\000\000\000\000\000\000\000\327\314\340$\022l\250?\000\000\000\000\000\000\000\000\000\000\000\000\000\000\000\000\000\000\000\000\000\000\000\000\327\314\340$\022l\250?\000\000\000\000\000\000\000\000\000\000\000\000\000\000\000\000\000\000\000\000\000\000\000\000\327\314\340$\022l\250?\000\000\000\000\000\000\000\000\000\000\000\000\000\000\000\000\000\000\000\000\000\000\000\000\327\314\340$\022l\250?\000\000\000\000\000\000\000\000\000\000\000\000\000\000\000\000\000\000\000\000\000\000\000\000\327\314\340$\022l\250?\000\000\000\000\000\000\000\000\000\000\000\000\000\000\000\000\000\000\000\000\000\000\000\000\327\314\340$\022l\250?\000\000\000\000\000\000\000\000\000\000\000\000\000\000\000\000\000\000\000\000\000\000\000\000\327\314\340$\022l\250?\000\000\000\000\000\000\000\000\000\000\000\000\000\000\000\000\000\000\000\000\000\000\000\000\327\314\340$\022l\250?\000\000\000\000\000\000\000\000\000\000\000\000\000\000\000\000\000\000\000\000\000\000\000\000\327\314\340$\022l\250?\000\000\000\000\000\000\000\000\000\000\000\000\000\000\000\000\000\000\000\000\000\000\000\000\327\314\340$\022l\250?\000\000\000\000\000\000\000\000\000\000\000\000\000\000\000\000\000\000\000\000\000\000\000\000\327\314\340$\022l\250?\000\000\000\000\000\000\000\000\000\000\000\000\000\000\000\000\000\000\000\000\000\000\000\000\327\314\340$\022l\250?\000\000\000\000\000\000\000\000\000\000\000\000\000\000\000\000\000\000\000\000\000\000\000\000\327\314\340$\022l\250?\000\000\000\000\000\000\000\000\000\000\000\000\000\000\000\000\000\000\000\000\000\000\000\000\327\314\340$\022l\250?\000\000\000\000\000\000\000\000\000\000\000\000\000\000\000\000\000\000\000\000\000\000\000\000\327\314\340$\022l\250?\000\000\000\000\000\000\000\000\000\000\000\000\000\000\000\000\000\000\000\000\000\000\000\000\327\314\340$\022l\250?\000\000\000\000\000\000\000\000\000\000\000\000\000\000\000\000\000\000\000\000\000\000\000\000\327\314\340$\022l\250?\000\000\000\000\000\000\000\000\000\000\000\000\000\000\000\000\000\000\000\000\000\000\000\000\327\314\340$\022l\250?\000\000\000\000\000\000\000\000\000\000\000\000\000\000\000\000\000\000\000\000\000\000\000\000\327\314\340$\022l\250?\000\000\000\000\000\000\000\000\000\000\000\000\000\000\000\000\000\000\000\000\000\000\000\000\327\314\340$\022l\250?\000\000\000\000\000\000\000\000\000\000\000\000\000\000\000\000\000\000\000\000\000\000\000\000\327\314\340$\022l\250?\000\000\000\000\000\000\000\000\000\000\000\000\000\000\000\000\000\000\000\000\000\000\000\000\327\314\340$\022l\250?\000\000\000\000\000\000\000\000\000\000\000\000\000\000\000\000\000\000\000\000\000\000\000\000\327\314\340$\022l\250?\000\000\000\000\000\000\000\000\000\000\000\000\000\000\000\000\000\000\000\000\000\000\000\000\327\314\340$\022l\250?\000\000\000\000\000\000\000\000\000\000\000\000\000\000\000\000\000\000\000\000\000\000\000\000\327\314\340$\022l\250?\000\000\000\000\000\000\000\000\000\000\000\000\000\000\000\000\000\000\000\000\000\000\000\000\327\314\340$\022l\250?\000\000\000\000\000\000\000\000\000\000\000\000\000\000\000\000\000\000\000\000\000\000\000\000\327\314\340$\022l\250?\000\000\000\000\000\000\000\000\000\000\000\000\000\000\000\000\000\000\000\000\000\000\000\000\327\314\340$\022l\250?\000\000\000\000\000\000\000\000\000\000\000\000\000\000\000\000\000\000\000\000\000\000\000\000\327\314\340$\022l\250?\000\000\000\000\000\000\000\000\000\000\000\000\000\000\000\000\000\000\000\000\000\000\000\000\327\314\340$\022l\250?\000\000\000\000\000\000\000\000\000\000\000\000\000\000\000\000\000\000\000\000\000\000\000\000\327\314\340$\022l\250?\000\000\000\000\000\000\000\000\000\000\000\000\000\000\000\000\000\000\000\000\000\000\000\000\327\314\340$\022l\250?\000\000\000\000\000\000\000\000\000\000\000\000\000\000\000\000\000\000\000\000\000\000\000\000\327\314\340$\022l\250?\000\000\000\000\000\000\000\000\000\000\000\000\000\000\000\000\000\000\000\000\000\000\000\000\327\314\340$\022l\250?\000\000\000\000\000\000\000\000\000\000\000\000\000\000\000\000\000\000\000\000\000\000\000\000\327\314\340$\022l\250?\000\000\000\000\000\000\000\000\000\000\000\000\000\000\000\000\000\000\000\000\000\000\000\000\327\314\340$\022l\250?\000\000\000\000\000\000\000\000\000\000\000\000\000\000\000\000\000\000\000\000\000\000\000\000\327\314\340$\022l\250?\000\000\000\000\000\000\000\000\000\000\000\000\000\000\000\000\000\000\000\000\000\000\000\000\327\314\340$\022l\250?\000\000\000\000\000\000\000\000\000\000\000\000\000\000\000\000\000\000\000\000\000\000\000\000\327\314\340$\022l\250?\000\000\000\000\000\000\000\000\000\000\000\000\000\000\000\000\000\000\000\000\000\000\000\000\327\314\340$\022l\250?\000\000\000\000\000\000\000\000\000\000\000\000\000\000\000\000\000\000\000\000\000\000\000\000\327\314\340$\022l\250?\000\000\000\000\000\000\000\000\000\000\000\000\000\000\000\000\000\000\000\000\000\000\000\000\327\314\340$\022l\250?\000\000\000\000\000\000\000\000\000\000\000\000\000\000\000\000\000\000\000\000\000\000\000\000\327\314\340$\022l\250?\000\000\000\000\000\000\000\000\000\000\000\000\000\000\000\000\000\000\000\000\000\000\000\000\327\314\340$\022l\250?\000\000\000\000\000\000\000\000\000\000\000\000\000\000\000\000\000\000\000\000\000\000\000\000\327\314\340$\022l\250?\000\000\000\000\000\000\000\000\000\000\000\000\000\000\000\000\000\000\000\000\000\000\000\000\327\314\340$\022l\250?\000\000\000\000\000\000\000\000\000\000\000\000\000\000\000\000\000\000\000\000\000\000\000\000\327\314\340$\022l\250?\000\000\000\000\000\000\000\000\000\000\000\000\000\000\000\000\000\000\000\000\000\000\000\000\327\314\340$\022l\250?\000\000\000\000\000\000\000\000\000\000\000\000\000\000\000\000\000\000\000\000\000\000\000\000\327\314\340$\022l\250?\000\000\000\000\000\000\000\000\000\000\000\000\000\000\000\000\000\000\000\000\000\000\000\000\327\314\340$\022l\250?\000\000\000\000\000\000\000\000\000\000\000\000\000\000\000\000\000\000\000\000\000\000\000\000\327\314\340$\022l\250?\000\000\000\000\000\000\000\000\000\000\000\000\000\000\000\000\000\000\000\000\000\000\000\000\327\314\340$\022l\250?\000\000\000\000\000\000\000\000\000\000\000\000\000\000\000\000\000\000\000\000\000\000\000\000\327\314\340$\022l\250?\000\000\000\000\000\000\000\000\000\000\000\000\000\000\000\000\000\000\000\000\000\000\000\000\327\314\340$\022l\250?\000\000\000\000\000\000\000\000\000\000\000\000\000\000\000\000\000\000\000\000\000\000\000\000\327\314\340$\022l\250?\000\000\000\000\000\000\000\000\000\000\000\000\000\000\000\000\000\000\000\000\000\000\000\000\327\314\340$\022l\250?\000\000\000\000\000\000\000\000\000\000\000\000\000\000\000\000\000\000\000\000\000\000\000\000\327\314\340$\022l\250?\000\000\000\000\000\000\000\000\000\000\000\000\000\000\000\000\000\000\000\000\000\000\000\000\327\314\340$\022l\250?\000\000\000\000\000\000\000\000\000\000\000\000\000\000\000\000\000\000\000\000\000\000\000\000\327\314\340$\022l\250?\000\000\000\000\000\000\000\000\000\000\000\000\000\000\000\000\000\000\000\000\000\000\000\000\327\314\340$\022l\250?\000\000\000\000\000\000\000\000\000\000\000\000\000\000\000\000\000\000\000\000\000\000\000\000\327\314\340$\022l\250?\000\000\000\000\000\000\000\000\000\000\000\000\000\000\000\000\000\000\000\000\000\000\000\000\327\314\340$\022l\250?\000\000\000\000\000\000\000\000\000\000\000\000\000\000\000\000\000\000\000\000\000\000\000\000\327\314\340$\022l\250?\000\000\000\000\000\000\000\000\000\000\000\000\000\000\000\000\000\000\000\000\000\000\000\000\327\314\340$\022l\250?\000\000\000\000\000\000\000\000\000\000\000\000\000\000\000\000\000\000\000\000\000\000\000\000\327\314\340$\022l\250?\000\000\000\000\000\000\000\000\000\000\000\000\000\000\000\000\000\000\000\000\000\000\000\000\327\314\340$\022l\250?\000\000\000\000\000\000\000\000\000\000\000\000\000\000\000\000\000\000\000\000\000\000\000\000\327\314\340$\022l\250?\000\000\000\000\000\000\000\000\000\000\000\000\000\000\000\000\000\000\000\000\000\000\000\000\327\314\340$\022l\250?\000\000\000\000\000\000\000\000\000\000\000\000\000\000\000\000\000\000\000\000\000\000\000\000\327\314\340$\022l\250?\000\000\000\000\000\000\000\000\000\000\000\000\000\000\000\000\000\000\000\000\000\000\000\000\327\314\340$\022l\250?\000\000\000\000\000\000\000\000\000\000\000\000\000\000\000\000\000\000\000\000\000\000\000\000\327\314\340$\022l\250?\000\000\000\000\000\000\000\000\000\000\000\000\000\000\000\000\000\000\000\000\000\000\000\000\327\314\340$\022l\250?\000\000\000\000\000\000\000\000\000\000\000\000\000\000\000\000\000\000\000\000\000\000\000\000\327\314\340$\022l\250?\000\000\000\000\000\000\000\000\000\000\000\000\000\000\000\000\000\000\000\000\000\000\000\000\327\314\340$\022l\250?\000\000\000\000\000\000\000\000\000\000\000\000\000\000\000\000\000\000\000\000\000\000\000\000\327\314\340$\022l\250?\000\000\000\000\000\000\000\000\000\000\000\000\000\000\000\000\000\000\000\000\000\000\000\000\327\314\340$\022l\250?\000\000\000\000\000\000\000\000\000\000\000\000\000\000\000\000\000\000\000\000\000\000\000\000\327\314\340$\022l\250?\000\000\000\000\000\000\000\000\000\000\000\000\000\000\000\000\000\000\000\000\000\000\000\000\327\314\340$\022l\250?\000\000\000\000\000\000\000\000\000\000\000\000\000\000\000\000\000\000\000\000\000\000\000\000\327\314\340$\022l\250?\000\000\000\000\000\000\000\000\000\000\000\000\000\000\000\000\000\000\000\000\000\000\000\000\327\314\340$\022l\250?\000\000\000\000\000\000\000\000\000\000\000\000\000\000\000\000\000\000\000\000\000\000\000\000\327\314\340$\022l\250?\000\000\000\000\000\000\000\000\000\000\000\000\000\000\000\000\000\000\000\000\000\000\000\000\327\314\340$\022l\250?\000\000\000\000\000\000\000\000\000\000\000\000\000\000\000\000\000\000\000\000\000\000\000\000\327\314\340$\022l\250?\000\000\000\000\000\000\000\000\000\000\000\000\000\000\000\000\000\000\000\000\000\000\000\000\327\314\340$\022l\250?\000\000\000\000\000\000\000\000\000\000\000\000\000\000\000\000\000\000\000\000\000\000\000\000\327\314\340$\022l\250?\000\000\000\000\000\000\000\000\000\000\000\000\000\000\000\000\000\000\000\000\000\000\000\000\327\314\340$\022l\250?\000\000\000\000\000\000\000\000\000\000\000\000\000\000\000\000\000\000\000\000\000\000\000\000\327\314\340$\022l\250?\000\000\000\000\000\000\000\000\000\000\000\000\000\000\000\000\000\000\000\000\000\000\000\000\327\314\340$\022l\250?\000\000\000\000\000\000\000\000\000\000\000\000\000\000\000\000\000\000\000\000\000\000\000\000\327\314\340$\022l\250?\000\000\000\000\000\000\000\000\000\000\000\000\000\000\000\000\000\000\000\000\000\000\000\000\327\314\340$\022l\250?\000\000\000\000\000\000\000\000\000\000\000\000\000\000\000\000\000\000\000\000\000\000\000\000\327\314\340$\022l\250?\000\000\000\000\000\000\000\000\000\000\000\000\000\000\000\000\000\000\000\000\000\000\000\000\327\314\340$\022l\250?\000\000\000\000\000\000\000\000\000\000\000\000\000\000\000\000\000\000\000\000\000\000\000\000\327\314\340$\022l\250?\000\000\000\000\000\000\000\000\000\000\000\000\000\000\000\000\000\000\000\000\000\000\000\000\327\314\340$\022l\250?\000\000\000\000\000\000\000\000\000\000\000\000\000\000\000\000\000\000\000\000\000\000\000\000\327\314\340$\022l\250?\000\000\000\000\000\000\000\000\000\000\000\000\000\000\000\000\000\000\000\000\000\000\000\000\327\314\340$\022l\250?\000\000\000\000\000\000\000\000\000\000\000\000\000\000\000\000\000\000\000\000\000\000\000\000\327\314\340$\022l\250?\000\000\000\000\000\000\000\000\000\000\000\000\000\000\000\000\000\000\000\000\000\000\000\000\327\314\340$\022l\250?\000\000\000\000\000\000\000\000\000\000\000\000\000\000\000\000\000\000\000\000\000\000\000\000\327\314\340$\022l\250?\000\000\000\000\000\000\000\000\000\000\000\000\000\000\000\000\000\000\000\000\000\000\000\000\327\314\340$\022l\250?\000\000\000\000\000\000\000\000\000\000\000\000\000\000\000\000\000\000\000\000\000\000\000\000\327\314\340$\022l\250?\000\000\000\000\000\000\000\000\000\000\000\000\000\000\000\000\000\000\000\000\000\000\000\000\327\314\340$\022l\250?\000\000\000\000\000\000\000\000\000\000\000\000\000\000\000\000\000\000\000\000\000\000\000\000\327\314\340$\022l\250?\000\000\000\000\000\000\000\000\000\000\000\000\000\000\000\000\000\000\000\000\000\000\000\000\327\314\340$\022l\250?\000\000\000\000\000\000\000\000\000\000\000\000\000\000\000\000\000\000\000\000\000\000\000\000\327\314\340$\022l\250?\000\000\000\000\000\000\000\000\000\000\000\000\000\000\000\000\000\000\000\000\000\000\000\000\327\314\340$\022l\250?\000\000\000\000\000\000\000\000\000\000\000\000\000\000\000\000\000\000\000\000\000\000\000\000\327\314\340$\022l\250?\000\000\000\000\000\000\000\000\000\000\000\000\000\000\000\000\000\000\000\000\000\000\000\000\327\314\340$\022l\250?\000\000\000\000\000\000\000\000\000\000\000\000\000\000\000\000\000\000\000\000\000\000\000\000\327\314\340$\022l\250?\000\000\000\000\000\000\000\000\000\000\000\000\000\000\000\000\000\000\000\000\000\000\000\000\327\314\340$\022l\250?\000\000\000\000\000\000\000\000\000\000\000\000\000\000\000\000\000\000\000\000\000\000\000\000\327\314\340$\022l\250?\000\000\000\000\000\000\000\000\000\000\000\000\000\000\000\000\000\000\000\000\000\000\000\000\327\314\340$\022l\250?\000\000\000\000\000\000\000\000\000\000\000\000\000\000\000\000\000\000\000\000\000\000\000\000\327\314\340$\022l\250?\000\000\000\000\000\000\000\000\000\000\000\000\000\000\000\000\000\000\000\000\000\000\000\000\327\314\340$\022l\250?\000\000\000\000\000\000\000\000\000\000\000\000\000\000\000\000\000\000\000\000\000\000\000\000\327\314\340$\022l\250?\000\000\000\000\000\000\000\000\000\000\000\000\000\000\000\000\000\000\000\000\000\000\000\000\327\314\340$\022l\250?\000\000\000\000\000\000\000\000\000\000\000\000\000\000\000\000\000\000\000\000\000\000\000\000\327\314\340$\022l\250?\000\000\000\000\000\000\000\000\000\000\000\000\000\000\000\000\000\000\000\000\000\000\000\000\327\314\340$\022l\250?\000\000\000\000\000\000\000\000\000\000\000\000\000\000\000\000\000\000\000\000\000\000\000\000\327\314\340$\022l\250?\000\000\000\000\000\000\000\000\000\000\000\000\000\000\000\000\000\000\000\000\000\000\000\000\327\314\340$\022l\250?\000\000\000\000\000\000\000\000\000\000\000\000\000\000\000\000\000\000\000\000\000\000\000\000\327\314\340$\022l\250?\000\000\000\000\000\000\000\000\000\000\000\000\000\000\000\000\000\000\000\000\000\000\000\000"
      }
    }
  }
}
node {
  name: "dipole_charge/descrpt_attr/t_avg/read"
  op: "Identity"
  input: "dipole_charge/descrpt_attr/t_avg"
  attr {
    key: "T"
    value {
      type: DT_DOUBLE
    }
  }
  attr {
    key: "_class"
    value {
      list {
        s: "loc:@dipole_charge/descrpt_attr/t_avg"
      }
    }
  }
}
node {
  name: "dipole_charge/descrpt_attr/t_std"
  op: "Const"
  attr {
    key: "dtype"
    value {
      type: DT_DOUBLE
    }
  }
  attr {
    key: "value"
    value {
      tensor {
        dtype: DT_DOUBLE
        tensor_shape {
          dim {
            size: 2
          }
          dim {
            size: 552
          }
        }
        tensor_content: "\240\243\320\023i\332\301?\n\201\020\000\177\345\265?\n\201\020\000\177\345\265?\n\201\020\000\177\345\265?\240\243\320\023i\332\301?\n\201\020\000\177\345\265?\n\201\020\000\177\345\265?\n\201\020\000\177\345\265?\240\243\320\023i\332\301?\n\201\020\000\177\345\265?\n\201\020\000\177\345\265?\n\201\020\000\177\345\265?\240\243\320\023i\332\301?\n\201\020\000\177\345\265?\n\201\020\000\177\345\265?\n\201\020\000\177\345\265?\240\243\320\023i\332\301?\n\201\020\000\177\345\265?\n\201\020\000\177\345\265?\n\201\020\000\177\345\265?\240\243\320\023i\332\301?\n\201\020\000\177\345\265?\n\201\020\000\177\345\265?\n\201\020\000\177\345\265?\240\243\320\023i\332\301?\n\201\020\000\177\345\265?\n\201\020\000\177\345\265?\n\201\020\000\177\345\265?\240\243\320\023i\332\301?\n\201\020\000\177\345\265?\n\201\020\000\177\345\265?\n\201\020\000\177\345\265?\240\243\320\023i\332\301?\n\201\020\000\177\345\265?\n\201\020\000\177\345\265?\n\201\020\000\177\345\265?\240\243\320\023i\332\301?\n\201\020\000\177\345\265?\n\201\020\000\177\345\265?\n\201\020\000\177\345\265?\240\243\320\023i\332\301?\n\201\020\000\177\345\265?\n\201\020\000\177\345\265?\n\201\020\000\177\345\265?\240\243\320\023i\332\301?\n\201\020\000\177\345\265?\n\201\020\000\177\345\265?\n\201\020\000\177\345\265?\240\243\320\023i\332\301?\n\201\020\000\177\345\265?\n\201\020\000\177\345\265?\n\201\020\000\177\345\265?\240\243\320\023i\332\301?\n\201\020\000\177\345\265?\n\201\020\000\177\345\265?\n\201\020\000\177\345\265?\240\243\320\023i\332\301?\n\201\020\000\177\345\265?\n\201\020\000\177\345\265?\n\201\020\000\177\345\265?\240\243\320\023i\332\301?\n\201\020\000\177\345\265?\n\201\020\000\177\345\265?\n\201\020\000\177\345\265?\240\243\320\023i\332\301?\n\201\020\000\177\345\265?\n\201\020\000\177\345\265?\n\201\020\000\177\345\265?\240\243\320\023i\332\301?\n\201\020\000\177\345\265?\n\201\020\000\177\345\265?\n\201\020\000\177\345\265?\240\243\320\023i\332\301?\n\201\020\000\177\345\265?\n\201\020\000\177\345\265?\n\201\020\000\177\345\265?\240\243\320\023i\332\301?\n\201\020\000\177\345\265?\n\201\020\000\177\345\265?\n\201\020\000\177\345\265?\240\243\320\023i\332\301?\n\201\020\000\177\345\265?\n\201\020\000\177\345\265?\n\201\020\000\177\345\265?\240\243\320\023i\332\301?\n\201\020\000\177\345\265?\n\201\020\000\177\345\265?\n\201\020\000\177\345\265?\240\243\320\023i\332\301?\n\201\020\000\177\345\265?\n\201\020\000\177\345\265?\n\201\020\000\177\345\265?\240\243\320\023i\332\301?\n\201\020\000\177\345\265?\n\201\020\000\177\345\265?\n\201\020\000\177\345\265?\240\243\320\023i\332\301?\n\201\020\000\177\345\265?\n\201\020\000\177\345\265?\n\201\020\000\177\345\265?\240\243\320\023i\332\301?\n\201\020\000\177\345\265?\n\201\020\000\177\345\265?\n\201\020\000\177\345\265?\240\243\320\023i\332\301?\n\201\020\000\177\345\265?\n\201\020\000\177\345\265?\n\201\020\000\177\345\265?\240\243\320\023i\332\301?\n\201\020\000\177\345\265?\n\201\020\000\177\345\265?\n\201\020\000\177\345\265?\240\243\320\023i\332\301?\n\201\020\000\177\345\265?\n\201\020\000\177\345\265?\n\201\020\000\177\345\265?\240\243\320\023i\332\301?\n\201\020\000\177\345\265?\n\201\020\000\177\345\265?\n\201\020\000\177\345\265?\240\243\320\023i\332\301?\n\201\020\000\177\345\265?\n\201\020\000\177\345\265?\n\201\020\000\177\345\265?\240\243\320\023i\332\301?\n\201\020\000\177\345\265?\n\201\020\000\177\345\265?\n\201\020\000\177\345\265?\240\243\320\023i\332\301?\n\201\020\000\177\345\265?\n\201\020\000\177\345\265?\n\201\020\000\177\345\265?\240\243\320\023i\332\301?\n\201\020\000\177\345\265?\n\201\020\000\177\345\265?\n\201\020\000\177\345\265?\240\243\320\023i\332\301?\n\201\020\000\177\345\265?\n\201\020\000\177\345\265?\n\201\020\000\177\345\265?\240\243\320\023i\332\301?\n\201\020\000\177\345\265?\n\201\020\000\177\345\265?\n\201\020\000\177\345\265?\240\243\320\023i\332\301?\n\201\020\000\177\345\265?\n\201\020\000\177\345\265?\n\201\020\000\177\345\265?\240\243\320\023i\332\301?\n\201\020\000\177\345\265?\n\201\020\000\177\345\265?\n\201\020\000\177\345\265?\240\243\320\023i\332\301?\n\201\020\000\177\345\265?\n\201\020\000\177\345\265?\n\201\020\000\177\345\265?\240\243\320\023i\332\301?\n\201\020\000\177\345\265?\n\201\020\000\177\345\265?\n\201\020\000\177\345\265?\240\243\320\023i\332\301?\n\201\020\000\177\345\265?\n\201\020\000\177\345\265?\n\201\020\000\177\345\265?\240\243\320\023i\332\301?\n\201\020\000\177\345\265?\n\201\020\000\177\345\265?\n\201\020\000\177\345\265?\240\243\320\023i\332\301?\n\201\020\000\177\345\265?\n\201\020\000\177\345\265?\n\201\020\000\177\345\265?\240\243\320\023i\332\301?\n\201\020\000\177\345\265?\n\201\020\000\177\345\265?\n\201\020\000\177\345\265?\240\243\320\023i\332\301?\n\201\020\000\177\345\265?\n\201\020\000\177\345\265?\n\201\020\000\177\345\265?\240\243\320\023i\332\301?\n\201\020\000\177\345\265?\n\201\020\000\177\345\265?\n\201\020\000\177\345\265?\240\243\320\023i\332\301?\n\201\020\000\177\345\265?\n\201\020\000\177\345\265?\n\201\020\000\177\345\265?\240\243\320\023i\332\301?\n\201\020\000\177\345\265?\n\201\020\000\177\345\265?\n\201\020\000\177\345\265?\240\243\320\023i\332\301?\n\201\020\000\177\345\265?\n\201\020\000\177\345\265?\n\201\020\000\177\345\265?\240\243\320\023i\332\301?\n\201\020\000\177\345\265?\n\201\020\000\177\345\265?\n\201\020\000\177\345\265?\240\243\320\023i\332\301?\n\201\020\000\177\345\265?\n\201\020\000\177\345\265?\n\201\020\000\177\345\265?\240\243\320\023i\332\301?\n\201\020\000\177\345\265?\n\201\020\000\177\345\265?\n\201\020\000\177\345\265?\240\243\320\023i\332\301?\n\201\020\000\177\345\265?\n\201\020\000\177\345\265?\n\201\020\000\177\345\265?\240\243\320\023i\332\301?\n\201\020\000\177\345\265?\n\201\020\000\177\345\265?\n\201\020\000\177\345\265?\240\243\320\023i\332\301?\n\201\020\000\177\345\265?\n\201\020\000\177\345\265?\n\201\020\000\177\345\265?\240\243\320\023i\332\301?\n\201\020\000\177\345\265?\n\201\020\000\177\345\265?\n\201\020\000\177\345\265?\240\243\320\023i\332\301?\n\201\020\000\177\345\265?\n\201\020\000\177\345\265?\n\201\020\000\177\345\265?\240\243\320\023i\332\301?\n\201\020\000\177\345\265?\n\201\020\000\177\345\265?\n\201\020\000\177\345\265?\240\243\320\023i\332\301?\n\201\020\000\177\345\265?\n\201\020\000\177\345\265?\n\201\020\000\177\345\265?\240\243\320\023i\332\301?\n\201\020\000\177\345\265?\n\201\020\000\177\345\265?\n\201\020\000\177\345\265?\240\243\320\023i\332\301?\n\201\020\000\177\345\265?\n\201\020\000\177\345\265?\n\201\020\000\177\345\265?\240\243\320\023i\332\301?\n\201\020\000\177\345\265?\n\201\020\000\177\345\265?\n\201\020\000\177\345\265?\240\243\320\023i\332\301?\n\201\020\000\177\345\265?\n\201\020\000\177\345\265?\n\201\020\000\177\345\265?\240\243\320\023i\332\301?\n\201\020\000\177\345\265?\n\201\020\000\177\345\265?\n\201\020\000\177\345\265?\240\243\320\023i\332\301?\n\201\020\000\177\345\265?\n\201\020\000\177\345\265?\n\201\020\000\177\345\265?\240\243\320\023i\332\301?\n\201\020\000\177\345\265?\n\201\020\000\177\345\265?\n\201\020\000\177\345\265?\240\243\320\023i\332\301?\n\201\020\000\177\345\265?\n\201\020\000\177\345\265?\n\201\020\000\177\345\265?\240\243\320\023i\332\301?\n\201\020\000\177\345\265?\n\201\020\000\177\345\265?\n\201\020\000\177\345\265?\240\243\320\023i\332\301?\n\201\020\000\177\345\265?\n\201\020\000\177\345\265?\n\201\020\000\177\345\265?\240\243\320\023i\332\301?\n\201\020\000\177\345\265?\n\201\020\000\177\345\265?\n\201\020\000\177\345\265?\240\243\320\023i\332\301?\n\201\020\000\177\345\265?\n\201\020\000\177\345\265?\n\201\020\000\177\345\265?\240\243\320\023i\332\301?\n\201\020\000\177\345\265?\n\201\020\000\177\345\265?\n\201\020\000\177\345\265?\240\243\320\023i\332\301?\n\201\020\000\177\345\265?\n\201\020\000\177\345\265?\n\201\020\000\177\345\265?\240\243\320\023i\332\301?\n\201\020\000\177\345\265?\n\201\020\000\177\345\265?\n\201\020\000\177\345\265?\240\243\320\023i\332\301?\n\201\020\000\177\345\265?\n\201\020\000\177\345\265?\n\201\020\000\177\345\265?\240\243\320\023i\332\301?\n\201\020\000\177\345\265?\n\201\020\000\177\345\265?\n\201\020\000\177\345\265?\240\243\320\023i\332\301?\n\201\020\000\177\345\265?\n\201\020\000\177\345\265?\n\201\020\000\177\345\265?\240\243\320\023i\332\301?\n\201\020\000\177\345\265?\n\201\020\000\177\345\265?\n\201\020\000\177\345\265?\240\243\320\023i\332\301?\n\201\020\000\177\345\265?\n\201\020\000\177\345\265?\n\201\020\000\177\345\265?\240\243\320\023i\332\301?\n\201\020\000\177\345\265?\n\201\020\000\177\345\265?\n\201\020\000\177\345\265?\240\243\320\023i\332\301?\n\201\020\000\177\345\265?\n\201\020\000\177\345\265?\n\201\020\000\177\345\265?\240\243\320\023i\332\301?\n\201\020\000\177\345\265?\n\201\020\000\177\345\265?\n\201\020\000\177\345\265?\240\243\320\023i\332\301?\n\201\020\000\177\345\265?\n\201\020\000\177\345\265?\n\201\020\000\177\345\265?\240\243\320\023i\332\301?\n\201\020\000\177\345\265?\n\201\020\000\177\345\265?\n\201\020\000\177\345\265?\240\243\320\023i\332\301?\n\201\020\000\177\345\265?\n\201\020\000\177\345\265?\n\201\020\000\177\345\265?\240\243\320\023i\332\301?\n\201\020\000\177\345\265?\n\201\020\000\177\345\265?\n\201\020\000\177\345\265?\240\243\320\023i\332\301?\n\201\020\000\177\345\265?\n\201\020\000\177\345\265?\n\201\020\000\177\345\265?\240\243\320\023i\332\301?\n\201\020\000\177\345\265?\n\201\020\000\177\345\265?\n\201\020\000\177\345\265?\240\243\320\023i\332\301?\n\201\020\000\177\345\265?\n\201\020\000\177\345\265?\n\201\020\000\177\345\265?\240\243\320\023i\332\301?\n\201\020\000\177\345\265?\n\201\020\000\177\345\265?\n\201\020\000\177\345\265?\240\243\320\023i\332\301?\n\201\020\000\177\345\265?\n\201\020\000\177\345\265?\n\201\020\000\177\345\265?\240\243\320\023i\332\301?\n\201\020\000\177\345\265?\n\201\020\000\177\345\265?\n\201\020\000\177\345\265?\240\243\320\023i\332\301?\n\201\020\000\177\345\265?\n\201\020\000\177\345\265?\n\201\020\000\177\345\265?\240\243\320\023i\332\301?\n\201\020\000\177\345\265?\n\201\020\000\177\345\265?\n\201\020\000\177\345\265?\240\243\320\023i\332\301?\n\201\020\000\177\345\265?\n\201\020\000\177\345\265?\n\201\020\000\177\345\265?\240\243\320\023i\332\301?\n\201\020\000\177\345\265?\n\201\020\000\177\345\265?\n\201\020\000\177\345\265?\240\243\320\023i\332\301?\n\201\020\000\177\345\265?\n\201\020\000\177\345\265?\n\201\020\000\177\345\265?\240\243\320\023i\332\301?\n\201\020\000\177\345\265?\n\201\020\000\177\345\265?\n\201\020\000\177\345\265?\240\243\320\023i\332\301?\n\201\020\000\177\345\265?\n\201\020\000\177\345\265?\n\201\020\000\177\345\265?\240\243\320\023i\332\301?\n\201\020\000\177\345\265?\n\201\020\000\177\345\265?\n\201\020\000\177\345\265?\240\243\320\023i\332\301?\n\201\020\000\177\345\265?\n\201\020\000\177\345\265?\n\201\020\000\177\345\265?\240\243\320\023i\332\301?\n\201\020\000\177\345\265?\n\201\020\000\177\345\265?\n\201\020\000\177\345\265?\240\243\320\023i\332\301?\n\201\020\000\177\345\265?\n\201\020\000\177\345\265?\n\201\020\000\177\345\265?\240\243\320\023i\332\301?\n\201\020\000\177\345\265?\n\201\020\000\177\345\265?\n\201\020\000\177\345\265?\240\243\320\023i\332\301?\n\201\020\000\177\345\265?\n\201\020\000\177\345\265?\n\201\020\000\177\345\265?\240\243\320\023i\332\301?\n\201\020\000\177\345\265?\n\201\020\000\177\345\265?\n\201\020\000\177\345\265?\240\243\320\023i\332\301?\n\201\020\000\177\345\265?\n\201\020\000\177\345\265?\n\201\020\000\177\345\265?\240\243\320\023i\332\301?\n\201\020\000\177\345\265?\n\201\020\000\177\345\265?\n\201\020\000\177\345\265?\240\243\320\023i\332\301?\n\201\020\000\177\345\265?\n\201\020\000\177\345\265?\n\201\020\000\177\345\265?\240\243\320\023i\332\301?\n\201\020\000\177\345\265?\n\201\020\000\177\345\265?\n\201\020\000\177\345\265?\240\243\320\023i\332\301?\n\201\020\000\177\345\265?\n\201\020\000\177\345\265?\n\201\020\000\177\345\265?\240\243\320\023i\332\301?\n\201\020\000\177\345\265?\n\201\020\000\177\345\265?\n\201\020\000\177\345\265?\240\243\320\023i\332\301?\n\201\020\000\177\345\265?\n\201\020\000\177\345\265?\n\201\020\000\177\345\265?\240\243\320\023i\332\301?\n\201\020\000\177\345\265?\n\201\020\000\177\345\265?\n\201\020\000\177\345\265?\240\243\320\023i\332\301?\n\201\020\000\177\345\265?\n\201\020\000\177\345\265?\n\201\020\000\177\345\265?\240\243\320\023i\332\301?\n\201\020\000\177\345\265?\n\201\020\000\177\345\265?\n\201\020\000\177\345\265?\240\243\320\023i\332\301?\n\201\020\000\177\345\265?\n\201\020\000\177\345\265?\n\201\020\000\177\345\265?\240\243\320\023i\332\301?\n\201\020\000\177\345\265?\n\201\020\000\177\345\265?\n\201\020\000\177\345\265?\240\243\320\023i\332\301?\n\201\020\000\177\345\265?\n\201\020\000\177\345\265?\n\201\020\000\177\345\265?\240\243\320\023i\332\301?\n\201\020\000\177\345\265?\n\201\020\000\177\345\265?\n\201\020\000\177\345\265?\240\243\320\023i\332\301?\n\201\020\000\177\345\265?\n\201\020\000\177\345\265?\n\201\020\000\177\345\265?\240\243\320\023i\332\301?\n\201\020\000\177\345\265?\n\201\020\000\177\345\265?\n\201\020\000\177\345\265?\240\243\320\023i\332\301?\n\201\020\000\177\345\265?\n\201\020\000\177\345\265?\n\201\020\000\177\345\265?\240\243\320\023i\332\301?\n\201\020\000\177\345\265?\n\201\020\000\177\345\265?\n\201\020\000\177\345\265?\240\243\320\023i\332\301?\n\201\020\000\177\345\265?\n\201\020\000\177\345\265?\n\201\020\000\177\345\265?\240\243\320\023i\332\301?\n\201\020\000\177\345\265?\n\201\020\000\177\345\265?\n\201\020\000\177\345\265?\240\243\320\023i\332\301?\n\201\020\000\177\345\265?\n\201\020\000\177\345\265?\n\201\020\000\177\345\265?\240\243\320\023i\332\301?\n\201\020\000\177\345\265?\n\201\020\000\177\345\265?\n\201\020\000\177\345\265?\240\243\320\023i\332\301?\n\201\020\000\177\345\265?\n\201\020\000\177\345\265?\n\201\020\000\177\345\265?\240\243\320\023i\332\301?\n\201\020\000\177\345\265?\n\201\020\000\177\345\265?\n\201\020\000\177\345\265?\240\243\320\023i\332\301?\n\201\020\000\177\345\265?\n\201\020\000\177\345\265?\n\201\020\000\177\345\265?\240\243\320\023i\332\301?\n\201\020\000\177\345\265?\n\201\020\000\177\345\265?\n\201\020\000\177\345\265?\240\243\320\023i\332\301?\n\201\020\000\177\345\265?\n\201\020\000\177\345\265?\n\201\020\000\177\345\265?\240\243\320\023i\332\301?\n\201\020\000\177\345\265?\n\201\020\000\177\345\265?\n\201\020\000\177\345\265?\240\243\320\023i\332\301?\n\201\020\000\177\345\265?\n\201\020\000\177\345\265?\n\201\020\000\177\345\265?\240\243\320\023i\332\301?\n\201\020\000\177\345\265?\n\201\020\000\177\345\265?\n\201\020\000\177\345\265?\240\243\320\023i\332\301?\n\201\020\000\177\345\265?\n\201\020\000\177\345\265?\n\201\020\000\177\345\265?\240\243\320\023i\332\301?\n\201\020\000\177\345\265?\n\201\020\000\177\345\265?\n\201\020\000\177\345\265?\307\202\033w\270\262\277?K\275O\346\245\234\263?K\275O\346\245\234\263?K\275O\346\245\234\263?\307\202\033w\270\262\277?K\275O\346\245\234\263?K\275O\346\245\234\263?K\275O\346\245\234\263?\307\202\033w\270\262\277?K\275O\346\245\234\263?K\275O\346\245\234\263?K\275O\346\245\234\263?\307\202\033w\270\262\277?K\275O\346\245\234\263?K\275O\346\245\234\263?K\275O\346\245\234\263?\307\202\033w\270\262\277?K\275O\346\245\234\263?K\275O\346\245\234\263?K\275O\346\245\234\263?\307\202\033w\270\262\277?K\275O\346\245\234\263?K\275O\346\245\234\263?K\275O\346\245\234\263?\307\202\033w\270\262\277?K\275O\346\245\234\263?K\275O\346\245\234\263?K\275O\346\245\234\263?\307\202\033w\270\262\277?K\275O\346\245\234\263?K\275O\346\245\234\263?K\275O\346\245\234\263?\307\202\033w\270\262\277?K\275O\346\245\234\263?K\275O\346\245\234\263?K\275O\346\245\234\263?\307\202\033w\270\262\277?K\275O\346\245\234\263?K\275O\346\245\234\263?K\275O\346\245\234\263?\307\202\033w\270\262\277?K\275O\346\245\234\263?K\275O\346\245\234\263?K\275O\346\245\234\263?\307\202\033w\270\262\277?K\275O\346\245\234\263?K\275O\346\245\234\263?K\275O\346\245\234\263?\307\202\033w\270\262\277?K\275O\346\245\234\263?K\275O\346\245\234\263?K\275O\346\245\234\263?\307\202\033w\270\262\277?K\275O\346\245\234\263?K\275O\346\245\234\263?K\275O\346\245\234\263?\307\202\033w\270\262\277?K\275O\346\245\234\263?K\275O\346\245\234\263?K\275O\346\245\234\263?\307\202\033w\270\262\277?K\275O\346\245\234\263?K\275O\346\245\234\263?K\275O\346\245\234\263?\307\202\033w\270\262\277?K\275O\346\245\234\263?K\275O\346\245\234\263?K\275O\346\245\234\263?\307\202\033w\270\262\277?K\275O\346\245\234\263?K\275O\346\245\234\263?K\275O\346\245\234\263?\307\202\033w\270\262\277?K\275O\346\245\234\263?K\275O\346\245\234\263?K\275O\346\245\234\263?\307\202\033w\270\262\277?K\275O\346\245\234\263?K\275O\346\245\234\263?K\275O\346\245\234\263?\307\202\033w\270\262\277?K\275O\346\245\234\263?K\275O\346\245\234\263?K\275O\346\245\234\263?\307\202\033w\270\262\277?K\275O\346\245\234\263?K\275O\346\245\234\263?K\275O\346\245\234\263?\307\202\033w\270\262\277?K\275O\346\245\234\263?K\275O\346\245\234\263?K\275O\346\245\234\263?\307\202\033w\270\262\277?K\275O\346\245\234\263?K\275O\346\245\234\263?K\275O\346\245\234\263?\307\202\033w\270\262\277?K\275O\346\245\234\263?K\275O\346\245\234\263?K\275O\346\245\234\263?\307\202\033w\270\262\277?K\275O\346\245\234\263?K\275O\346\245\234\263?K\275O\346\245\234\263?\307\202\033w\270\262\277?K\275O\346\245\234\263?K\275O\346\245\234\263?K\275O\346\245\234\263?\307\202\033w\270\262\277?K\275O\346\245\234\263?K\275O\346\245\234\263?K\275O\346\245\234\263?\307\202\033w\270\262\277?K\275O\346\245\234\263?K\275O\346\245\234\263?K\275O\346\245\234\263?\307\202\033w\270\262\277?K\275O\346\245\234\263?K\275O\346\245\234\263?K\275O\346\245\234\263?\307\202\033w\270\262\277?K\275O\346\245\234\263?K\275O\346\245\234\263?K\275O\346\245\234\263?\307\202\033w\270\262\277?K\275O\346\245\234\263?K\275O\346\245\234\263?K\275O\346\245\234\263?\307\202\033w\270\262\277?K\275O\346\245\234\263?K\275O\346\245\234\263?K\275O\346\245\234\263?\307\202\033w\270\262\277?K\275O\346\245\234\263?K\275O\346\245\234\263?K\275O\346\245\234\263?\307\202\033w\270\262\277?K\275O\346\245\234\263?K\275O\346\245\234\263?K\275O\346\245\234\263?\307\202\033w\270\262\277?K\275O\346\245\234\263?K\275O\346\245\234\263?K\275O\346\245\234\263?\307\202\033w\270\262\277?K\275O\346\245\234\263?K\275O\346\245\234\263?K\275O\346\245\234\263?\307\202\033w\270\262\277?K\275O\346\245\234\263?K\275O\346\245\234\263?K\275O\346\245\234\263?\307\202\033w\270\262\277?K\275O\346\245\234\263?K\275O\346\245\234\263?K\275O\346\245\234\263?\307\202\033w\270\262\277?K\275O\346\245\234\263?K\275O\346\245\234\263?K\275O\346\245\234\263?\307\202\033w\270\262\277?K\275O\346\245\234\263?K\275O\346\245\234\263?K\275O\346\245\234\263?\307\202\033w\270\262\277?K\275O\346\245\234\263?K\275O\346\245\234\263?K\275O\346\245\234\263?\307\202\033w\270\262\277?K\275O\346\245\234\263?K\275O\346\245\234\263?K\275O\346\245\234\263?\307\202\033w\270\262\277?K\275O\346\245\234\263?K\275O\346\245\234\263?K\275O\346\245\234\263?\307\202\033w\270\262\277?K\275O\346\245\234\263?K\275O\346\245\234\263?K\275O\346\245\234\263?\307\202\033w\270\262\277?K\275O\346\245\234\263?K\275O\346\245\234\263?K\275O\346\245\234\263?\307\202\033w\270\262\277?K\275O\346\245\234\263?K\275O\346\245\234\263?K\275O\346\245\234\263?\307\202\033w\270\262\277?K\275O\346\245\234\263?K\275O\346\245\234\263?K\275O\346\245\234\263?\307\202\033w\270\262\277?K\275O\346\245\234\263?K\275O\346\245\234\263?K\275O\346\245\234\263?\307\202\033w\270\262\277?K\275O\346\245\234\263?K\275O\346\245\234\263?K\275O\346\245\234\263?\307\202\033w\270\262\277?K\275O\346\245\234\263?K\275O\346\245\234\263?K\275O\346\245\234\263?\307\202\033w\270\262\277?K\275O\346\245\234\263?K\275O\346\245\234\263?K\275O\346\245\234\263?\307\202\033w\270\262\277?K\275O\346\245\234\263?K\275O\346\245\234\263?K\275O\346\245\234\263?\307\202\033w\270\262\277?K\275O\346\245\234\263?K\275O\346\245\234\263?K\275O\346\245\234\263?\307\202\033w\270\262\277?K\275O\346\245\234\263?K\275O\346\245\234\263?K\275O\346\245\234\263?\307\202\033w\270\262\277?K\275O\346\245\234\263?K\275O\346\245\234\263?K\275O\346\245\234\263?\307\202\033w\270\262\277?K\275O\346\245\234\263?K\275O\346\245\234\263?K\275O\346\245\234\263?\307\202\033w\270\262\277?K\275O\346\245\234\263?K\275O\346\245\234\263?K\275O\346\245\234\263?\307\202\033w\270\262\277?K\275O\346\245\234\263?K\275O\346\245\234\263?K\275O\346\245\234\263?\307\202\033w\270\262\277?K\275O\346\245\234\263?K\275O\346\245\234\263?K\275O\346\245\234\263?\307\202\033w\270\262\277?K\275O\346\245\234\263?K\275O\346\245\234\263?K\275O\346\245\234\263?\307\202\033w\270\262\277?K\275O\346\245\234\263?K\275O\346\245\234\263?K\275O\346\245\234\263?\307\202\033w\270\262\277?K\275O\346\245\234\263?K\275O\346\245\234\263?K\275O\346\245\234\263?\307\202\033w\270\262\277?K\275O\346\245\234\263?K\275O\346\245\234\263?K\275O\346\245\234\263?\307\202\033w\270\262\277?K\275O\346\245\234\263?K\275O\346\245\234\263?K\275O\346\245\234\263?\307\202\033w\270\262\277?K\275O\346\245\234\263?K\275O\346\245\234\263?K\275O\346\245\234\263?\307\202\033w\270\262\277?K\275O\346\245\234\263?K\275O\346\245\234\263?K\275O\346\245\234\263?\307\202\033w\270\262\277?K\275O\346\245\234\263?K\275O\346\245\234\263?K\275O\346\245\234\263?\307\202\033w\270\262\277?K\275O\346\245\234\263?K\275O\346\245\234\263?K\275O\346\245\234\263?\307\202\033w\270\262\277?K\275O\346\245\234\263?K\275O\346\245\234\263?K\275O\346\245\234\263?\307\202\033w\270\262\277?K\275O\346\245\234\263?K\275O\346\245\234\263?K\275O\346\245\234\263?\307\202\033w\270\262\277?K\275O\346\245\234\263?K\275O\346\245\234\263?K\275O\346\245\234\263?\307\202\033w\270\262\277?K\275O\346\245\234\263?K\275O\346\245\234\263?K\275O\346\245\234\263?\307\202\033w\270\262\277?K\275O\346\245\234\263?K\275O\346\245\234\263?K\275O\346\245\234\263?\307\202\033w\270\262\277?K\275O\346\245\234\263?K\275O\346\245\234\263?K\275O\346\245\234\263?\307\202\033w\270\262\277?K\275O\346\245\234\263?K\275O\346\245\234\263?K\275O\346\245\234\263?\307\202\033w\270\262\277?K\275O\346\245\234\263?K\275O\346\245\234\263?K\275O\346\245\234\263?\307\202\033w\270\262\277?K\275O\346\245\234\263?K\275O\346\245\234\263?K\275O\346\245\234\263?\307\202\033w\270\262\277?K\275O\346\245\234\263?K\275O\346\245\234\263?K\275O\346\245\234\263?\307\202\033w\270\262\277?K\275O\346\245\234\263?K\275O\346\245\234\263?K\275O\346\245\234\263?\307\202\033w\270\262\277?K\275O\346\245\234\263?K\275O\346\245\234\263?K\275O\346\245\234\263?\307\202\033w\270\262\277?K\275O\346\245\234\263?K\275O\346\245\234\263?K\275O\346\245\234\263?\307\202\033w\270\262\277?K\275O\346\245\234\263?K\275O\346\245\234\263?K\275O\346\245\234\263?\307\202\033w\270\262\277?K\275O\346\245\234\263?K\275O\346\245\234\263?K\275O\346\245\234\263?\307\202\033w\270\262\277?K\275O\346\245\234\263?K\275O\346\245\234\263?K\275O\346\245\234\263?\307\202\033w\270\262\277?K\275O\346\245\234\263?K\275O\346\245\234\263?K\275O\346\245\234\263?\307\202\033w\270\262\277?K\275O\346\245\234\263?K\275O\346\245\234\263?K\275O\346\245\234\263?\307\202\033w\270\262\277?K\275O\346\245\234\263?K\275O\346\245\234\263?K\275O\346\245\234\263?\307\202\033w\270\262\277?K\275O\346\245\234\263?K\275O\346\245\234\263?K\275O\346\245\234\263?\307\202\033w\270\262\277?K\275O\346\245\234\263?K\275O\346\245\234\263?K\275O\346\245\234\263?\307\202\033w\270\262\277?K\275O\346\245\234\263?K\275O\346\245\234\263?K\275O\346\245\234\263?\307\202\033w\270\262\277?K\275O\346\245\234\263?K\275O\346\245\234\263?K\275O\346\245\234\263?\307\202\033w\270\262\277?K\275O\346\245\234\263?K\275O\346\245\234\263?K\275O\346\245\234\263?\307\202\033w\270\262\277?K\275O\346\245\234\263?K\275O\346\245\234\263?K\275O\346\245\234\263?\307\202\033w\270\262\277?K\275O\346\245\234\263?K\275O\346\245\234\263?K\275O\346\245\234\263?\307\202\033w\270\262\277?K\275O\346\245\234\263?K\275O\346\245\234\263?K\275O\346\245\234\263?\307\202\033w\270\262\277?K\275O\346\245\234\263?K\275O\346\245\234\263?K\275O\346\245\234\263?\307\202\033w\270\262\277?K\275O\346\245\234\263?K\275O\346\245\234\263?K\275O\346\245\234\263?\307\202\033w\270\262\277?K\275O\346\245\234\263?K\275O\346\245\234\263?K\275O\346\245\234\263?\307\202\033w\270\262\277?K\275O\346\245\234\263?K\275O\346\245\234\263?K\275O\346\245\234\263?\307\202\033w\270\262\277?K\275O\346\245\234\263?K\275O\346\245\234\263?K\275O\346\245\234\263?\307\202\033w\270\262\277?K\275O\346\245\234\263?K\275O\346\245\234\263?K\275O\346\245\234\263?\307\202\033w\270\262\277?K\275O\346\245\234\263?K\275O\346\245\234\263?K\275O\346\245\234\263?\307\202\033w\270\262\277?K\275O\346\245\234\263?K\275O\346\245\234\263?K\275O\346\245\234\263?\307\202\033w\270\262\277?K\275O\346\245\234\263?K\275O\346\245\234\263?K\275O\346\245\234\263?\307\202\033w\270\262\277?K\275O\346\245\234\263?K\275O\346\245\234\263?K\275O\346\245\234\263?\307\202\033w\270\262\277?K\275O\346\245\234\263?K\275O\346\245\234\263?K\275O\346\245\234\263?\307\202\033w\270\262\277?K\275O\346\245\234\263?K\275O\346\245\234\263?K\275O\346\245\234\263?\307\202\033w\270\262\277?K\275O\346\245\234\263?K\275O\346\245\234\263?K\275O\346\245\234\263?\307\202\033w\270\262\277?K\275O\346\245\234\263?K\275O\346\245\234\263?K\275O\346\245\234\263?\307\202\033w\270\262\277?K\275O\346\245\234\263?K\275O\346\245\234\263?K\275O\346\245\234\263?\307\202\033w\270\262\277?K\275O\346\245\234\263?K\275O\346\245\234\263?K\275O\346\245\234\263?\307\202\033w\270\262\277?K\275O\346\245\234\263?K\275O\346\245\234\263?K\275O\346\245\234\263?\307\202\033w\270\262\277?K\275O\346\245\234\263?K\275O\346\245\234\263?K\275O\346\245\234\263?\307\202\033w\270\262\277?K\275O\346\245\234\263?K\275O\346\245\234\263?K\275O\346\245\234\263?\307\202\033w\270\262\277?K\275O\346\245\234\263?K\275O\346\245\234\263?K\275O\346\245\234\263?\307\202\033w\270\262\277?K\275O\346\245\234\263?K\275O\346\245\234\263?K\275O\346\245\234\263?\307\202\033w\270\262\277?K\275O\346\245\234\263?K\275O\346\245\234\263?K\275O\346\245\234\263?\307\202\033w\270\262\277?K\275O\346\245\234\263?K\275O\346\245\234\263?K\275O\346\245\234\263?\307\202\033w\270\262\277?K\275O\346\245\234\263?K\275O\346\245\234\263?K\275O\346\245\234\263?\307\202\033w\270\262\277?K\275O\346\245\234\263?K\275O\346\245\234\263?K\275O\346\245\234\263?\307\202\033w\270\262\277?K\275O\346\245\234\263?K\275O\346\245\234\263?K\275O\346\245\234\263?\307\202\033w\270\262\277?K\275O\346\245\234\263?K\275O\346\245\234\263?K\275O\346\245\234\263?\307\202\033w\270\262\277?K\275O\346\245\234\263?K\275O\346\245\234\263?K\275O\346\245\234\263?\307\202\033w\270\262\277?K\275O\346\245\234\263?K\275O\346\245\234\263?K\275O\346\245\234\263?\307\202\033w\270\262\277?K\275O\346\245\234\263?K\275O\346\245\234\263?K\275O\346\245\234\263?\307\202\033w\270\262\277?K\275O\346\245\234\263?K\275O\346\245\234\263?K\275O\346\245\234\263?\307\202\033w\270\262\277?K\275O\346\245\234\263?K\275O\346\245\234\263?K\275O\346\245\234\263?\307\202\033w\270\262\277?K\275O\346\245\234\263?K\275O\346\245\234\263?K\275O\346\245\234\263?\307\202\033w\270\262\277?K\275O\346\245\234\263?K\275O\346\245\234\263?K\275O\346\245\234\263?\307\202\033w\270\262\277?K\275O\346\245\234\263?K\275O\346\245\234\263?K\275O\346\245\234\263?\307\202\033w\270\262\277?K\275O\346\245\234\263?K\275O\346\245\234\263?K\275O\346\245\234\263?\307\202\033w\270\262\277?K\275O\346\245\234\263?K\275O\346\245\234\263?K\275O\346\245\234\263?\307\202\033w\270\262\277?K\275O\346\245\234\263?K\275O\346\245\234\263?K\275O\346\245\234\263?\307\202\033w\270\262\277?K\275O\346\245\234\263?K\275O\346\245\234\263?K\275O\346\245\234\263?\307\202\033w\270\262\277?K\275O\346\245\234\263?K\275O\346\245\234\263?K\275O\346\245\234\263?\307\202\033w\270\262\277?K\275O\346\245\234\263?K\275O\346\245\234\263?K\275O\346\245\234\263?\307\202\033w\270\262\277?K\275O\346\245\234\263?K\275O\346\245\234\263?K\275O\346\245\234\263?"
      }
    }
  }
}
node {
  name: "dipole_charge/descrpt_attr/t_std/read"
  op: "Identity"
  input: "dipole_charge/descrpt_attr/t_std"
  attr {
    key: "T"
    value {
      type: DT_DOUBLE
    }
  }
  attr {
    key: "_class"
    value {
      list {
        s: "loc:@dipole_charge/descrpt_attr/t_std"
      }
    }
  }
}
node {
  name: "dipole_charge/strided_slice_4/stack"
  op: "Const"
  input: "^dipole_charge/descrpt_attr/original_sel"
  input: "^dipole_charge/descrpt_attr/sel"
  attr {
    key: "dtype"
    value {
      type: DT_INT32
    }
  }
  attr {
    key: "value"
    value {
      tensor {
        dtype: DT_INT32
        tensor_shape {
          dim {
            size: 1
          }
        }
        int_val: 1
      }
    }
  }
}
node {
  name: "dipole_charge/strided_slice_4/stack_1"
  op: "Const"
  input: "^dipole_charge/descrpt_attr/original_sel"
  input: "^dipole_charge/descrpt_attr/sel"
  attr {
    key: "dtype"
    value {
      type: DT_INT32
    }
  }
  attr {
    key: "value"
    value {
      tensor {
        dtype: DT_INT32
        tensor_shape {
          dim {
            size: 1
          }
        }
        int_val: 2
      }
    }
  }
}
node {
  name: "dipole_charge/strided_slice_4/stack_2"
  op: "Const"
  input: "^dipole_charge/descrpt_attr/original_sel"
  input: "^dipole_charge/descrpt_attr/sel"
  attr {
    key: "dtype"
    value {
      type: DT_INT32
    }
  }
  attr {
    key: "value"
    value {
      tensor {
        dtype: DT_INT32
        tensor_shape {
          dim {
            size: 1
          }
        }
        int_val: 1
      }
    }
  }
}
node {
  name: "dipole_charge/strided_slice_4"
  op: "StridedSlice"
  input: "dipole_charge/t_natoms"
  input: "dipole_charge/strided_slice_4/stack"
  input: "dipole_charge/strided_slice_4/stack_1"
  input: "dipole_charge/strided_slice_4/stack_2"
  attr {
    key: "Index"
    value {
      type: DT_INT32
    }
  }
  attr {
    key: "T"
    value {
      type: DT_INT32
    }
  }
  attr {
    key: "begin_mask"
    value {
      i: 0
    }
  }
  attr {
    key: "ellipsis_mask"
    value {
      i: 0
    }
  }
  attr {
    key: "end_mask"
    value {
      i: 0
    }
  }
  attr {
    key: "new_axis_mask"
    value {
      i: 0
    }
  }
  attr {
    key: "shrink_axis_mask"
    value {
      i: 1
    }
  }
}
node {
  name: "dipole_charge/mul_1/y"
  op: "Const"
  input: "^dipole_charge/descrpt_attr/original_sel"
  input: "^dipole_charge/descrpt_attr/sel"
  attr {
    key: "dtype"
    value {
      type: DT_INT32
    }
  }
  attr {
    key: "value"
    value {
      tensor {
        dtype: DT_INT32
        tensor_shape {
        }
        int_val: 3
      }
    }
  }
}
node {
  name: "dipole_charge/mul_1"
  op: "Mul"
  input: "dipole_charge/strided_slice_4"
  input: "dipole_charge/mul_1/y"
  attr {
    key: "T"
    value {
      type: DT_INT32
    }
  }
}
node {
  name: "dipole_charge/Reshape_2/shape/0"
  op: "Const"
  input: "^dipole_charge/descrpt_attr/original_sel"
  input: "^dipole_charge/descrpt_attr/sel"
  attr {
    key: "dtype"
    value {
      type: DT_INT32
    }
  }
  attr {
    key: "value"
    value {
      tensor {
        dtype: DT_INT32
        tensor_shape {
        }
        int_val: -1
      }
    }
  }
}
node {
  name: "dipole_charge/Reshape_2/shape"
  op: "Pack"
  input: "dipole_charge/Reshape_2/shape/0"
  input: "dipole_charge/mul_1"
  attr {
    key: "N"
    value {
      i: 2
    }
  }
  attr {
    key: "T"
    value {
      type: DT_INT32
    }
  }
  attr {
    key: "axis"
    value {
      i: 0
    }
  }
}
node {
  name: "dipole_charge/Reshape_2"
  op: "Reshape"
  input: "dipole_charge/Reshape"
  input: "dipole_charge/Reshape_2/shape"
  attr {
    key: "T"
    value {
      type: DT_DOUBLE
    }
  }
  attr {
    key: "Tshape"
    value {
      type: DT_INT32
    }
  }
}
node {
  name: "dipole_charge/Reshape_3/shape"
  op: "Const"
  attr {
    key: "dtype"
    value {
      type: DT_INT32
    }
  }
  attr {
    key: "value"
    value {
      tensor {
        dtype: DT_INT32
        tensor_shape {
          dim {
            size: 2
          }
        }
        tensor_content: "\377\377\377\377\t\000\000\000"
      }
    }
  }
}
node {
  name: "dipole_charge/Reshape_3"
  op: "Reshape"
  input: "dipole_charge/t_box"
  input: "dipole_charge/Reshape_3/shape"
  attr {
    key: "T"
    value {
      type: DT_DOUBLE
    }
  }
  attr {
    key: "Tshape"
    value {
      type: DT_INT32
    }
  }
}
node {
  name: "dipole_charge/strided_slice_5/stack"
  op: "Const"
  attr {
    key: "dtype"
    value {
      type: DT_INT32
    }
  }
  attr {
    key: "value"
    value {
      tensor {
        dtype: DT_INT32
        tensor_shape {
          dim {
            size: 1
          }
        }
        int_val: 1
      }
    }
  }
}
node {
  name: "dipole_charge/strided_slice_5/stack_1"
  op: "Const"
  attr {
    key: "dtype"
    value {
      type: DT_INT32
    }
  }
  attr {
    key: "value"
    value {
      tensor {
        dtype: DT_INT32
        tensor_shape {
          dim {
            size: 1
          }
        }
        int_val: 2
      }
    }
  }
}
node {
  name: "dipole_charge/strided_slice_5/stack_2"
  op: "Const"
  attr {
    key: "dtype"
    value {
      type: DT_INT32
    }
  }
  attr {
    key: "value"
    value {
      tensor {
        dtype: DT_INT32
        tensor_shape {
          dim {
            size: 1
          }
        }
        int_val: 1
      }
    }
  }
}
node {
  name: "dipole_charge/strided_slice_5"
  op: "StridedSlice"
  input: "dipole_charge/t_natoms"
  input: "dipole_charge/strided_slice_5/stack"
  input: "dipole_charge/strided_slice_5/stack_1"
  input: "dipole_charge/strided_slice_5/stack_2"
  attr {
    key: "Index"
    value {
      type: DT_INT32
    }
  }
  attr {
    key: "T"
    value {
      type: DT_INT32
    }
  }
  attr {
    key: "begin_mask"
    value {
      i: 0
    }
  }
  attr {
    key: "ellipsis_mask"
    value {
      i: 0
    }
  }
  attr {
    key: "end_mask"
    value {
      i: 0
    }
  }
  attr {
    key: "new_axis_mask"
    value {
      i: 0
    }
  }
  attr {
    key: "shrink_axis_mask"
    value {
      i: 1
    }
  }
}
node {
  name: "dipole_charge/Reshape_4/shape/0"
  op: "Const"
  attr {
    key: "dtype"
    value {
      type: DT_INT32
    }
  }
  attr {
    key: "value"
    value {
      tensor {
        dtype: DT_INT32
        tensor_shape {
        }
        int_val: -1
      }
    }
  }
}
node {
  name: "dipole_charge/Reshape_4/shape"
  op: "Pack"
  input: "dipole_charge/Reshape_4/shape/0"
  input: "dipole_charge/strided_slice_5"
  attr {
    key: "N"
    value {
      i: 2
    }
  }
  attr {
    key: "T"
    value {
      type: DT_INT32
    }
  }
  attr {
    key: "axis"
    value {
      i: 0
    }
  }
}
node {
  name: "dipole_charge/Reshape_4"
  op: "Reshape"
  input: "dipole_charge/Reshape_1"
  input: "dipole_charge/Reshape_4/shape"
  attr {
    key: "T"
    value {
      type: DT_INT32
    }
  }
  attr {
    key: "Tshape"
    value {
      type: DT_INT32
    }
  }
}
node {
  name: "dipole_charge/ProdEnvMatA"
  op: "ProdEnvMatA"
  input: "dipole_charge/Reshape_2"
  input: "dipole_charge/Reshape_4"
  input: "dipole_charge/t_natoms"
  input: "dipole_charge/Reshape_3"
  input: "dipole_charge/t_mesh"
  input: "dipole_charge/descrpt_attr/t_avg/read"
  input: "dipole_charge/descrpt_attr/t_std/read"
  attr {
    key: "T"
    value {
      type: DT_DOUBLE
    }
  }
  attr {
    key: "rcut_a"
    value {
      f: -1.0
    }
  }
  attr {
    key: "rcut_r"
    value {
      f: 6.0
    }
  }
  attr {
    key: "rcut_r_smth"
    value {
      f: 0.5
    }
  }
  attr {
    key: "sel_a"
    value {
      list {
        i: 46
        i: 92
      }
    }
  }
  attr {
    key: "sel_r"
    value {
      list {
        i: 0
        i: 0
      }
    }
  }
}
node {
  name: "dipole_charge/Reshape_5/shape"
  op: "Const"
  attr {
    key: "dtype"
    value {
      type: DT_INT32
    }
  }
  attr {
    key: "value"
    value {
      tensor {
        dtype: DT_INT32
        tensor_shape {
          dim {
            size: 2
          }
        }
        tensor_content: "\377\377\377\377(\002\000\000"
      }
    }
  }
}
node {
  name: "dipole_charge/Reshape_5"
  op: "Reshape"
  input: "dipole_charge/ProdEnvMatA"
  input: "dipole_charge/Reshape_5/shape"
  attr {
    key: "T"
    value {
      type: DT_DOUBLE
    }
  }
  attr {
    key: "Tshape"
    value {
      type: DT_INT32
    }
  }
}
node {
  name: "dipole_charge/o_rmat"
  op: "Identity"
  input: "dipole_charge/Reshape_5"
  attr {
    key: "T"
    value {
      type: DT_DOUBLE
    }
  }
}
node {
  name: "dipole_charge/o_rmat_deriv"
  op: "Identity"
  input: "dipole_charge/ProdEnvMatA:1"
  attr {
    key: "T"
    value {
      type: DT_DOUBLE
    }
  }
}
node {
  name: "dipole_charge/o_rij"
  op: "Identity"
  input: "dipole_charge/ProdEnvMatA:2"
  attr {
    key: "T"
    value {
      type: DT_DOUBLE
    }
  }
}
node {
  name: "dipole_charge/o_nlist"
  op: "Identity"
  input: "dipole_charge/ProdEnvMatA:3"
  attr {
    key: "T"
    value {
      type: DT_INT32
    }
  }
}
node {
  name: "dipole_charge/strided_slice_6/stack"
  op: "Const"
  attr {
    key: "dtype"
    value {
      type: DT_INT32
    }
  }
  attr {
    key: "value"
    value {
      tensor {
        dtype: DT_INT32
        tensor_shape {
          dim {
            size: 1
          }
        }
        int_val: 0
      }
    }
  }
}
node {
  name: "dipole_charge/strided_slice_6/stack_1"
  op: "Const"
  attr {
    key: "dtype"
    value {
      type: DT_INT32
    }
  }
  attr {
    key: "value"
    value {
      tensor {
        dtype: DT_INT32
        tensor_shape {
          dim {
            size: 1
          }
        }
        int_val: 1
      }
    }
  }
}
node {
  name: "dipole_charge/strided_slice_6/stack_2"
  op: "Const"
  attr {
    key: "dtype"
    value {
      type: DT_INT32
    }
  }
  attr {
    key: "value"
    value {
      tensor {
        dtype: DT_INT32
        tensor_shape {
          dim {
            size: 1
          }
        }
        int_val: 1
      }
    }
  }
}
node {
  name: "dipole_charge/strided_slice_6"
  op: "StridedSlice"
  input: "dipole_charge/t_natoms"
  input: "dipole_charge/strided_slice_6/stack"
  input: "dipole_charge/strided_slice_6/stack_1"
  input: "dipole_charge/strided_slice_6/stack_2"
  attr {
    key: "Index"
    value {
      type: DT_INT32
    }
  }
  attr {
    key: "T"
    value {
      type: DT_INT32
    }
  }
  attr {
    key: "begin_mask"
    value {
      i: 0
    }
  }
  attr {
    key: "ellipsis_mask"
    value {
      i: 0
    }
  }
  attr {
    key: "end_mask"
    value {
      i: 0
    }
  }
  attr {
    key: "new_axis_mask"
    value {
      i: 0
    }
  }
  attr {
    key: "shrink_axis_mask"
    value {
      i: 1
    }
  }
}
node {
  name: "dipole_charge/Reshape_6/shape/0"
  op: "Const"
  attr {
    key: "dtype"
    value {
      type: DT_INT32
    }
  }
  attr {
    key: "value"
    value {
      tensor {
        dtype: DT_INT32
        tensor_shape {
        }
        int_val: -1
      }
    }
  }
}
node {
  name: "dipole_charge/Reshape_6/shape/2"
  op: "Const"
  attr {
    key: "dtype"
    value {
      type: DT_INT32
    }
  }
  attr {
    key: "value"
    value {
      tensor {
        dtype: DT_INT32
        tensor_shape {
        }
        int_val: 552
      }
    }
  }
}
node {
  name: "dipole_charge/Reshape_6/shape"
  op: "Pack"
  input: "dipole_charge/Reshape_6/shape/0"
  input: "dipole_charge/strided_slice_6"
  input: "dipole_charge/Reshape_6/shape/2"
  attr {
    key: "N"
    value {
      i: 3
    }
  }
  attr {
    key: "T"
    value {
      type: DT_INT32
    }
  }
  attr {
    key: "axis"
    value {
      i: 0
    }
  }
}
node {
  name: "dipole_charge/Reshape_6"
  op: "Reshape"
  input: "dipole_charge/o_rmat"
  input: "dipole_charge/Reshape_6/shape"
  attr {
    key: "T"
    value {
      type: DT_DOUBLE
    }
  }
  attr {
    key: "Tshape"
    value {
      type: DT_INT32
    }
  }
}
node {
  name: "dipole_charge/strided_slice_7/stack"
  op: "Const"
  attr {
    key: "dtype"
    value {
      type: DT_INT32
    }
  }
  attr {
    key: "value"
    value {
      tensor {
        dtype: DT_INT32
        tensor_shape {
          dim {
            size: 1
          }
        }
        int_val: 2
      }
    }
  }
}
node {
  name: "dipole_charge/strided_slice_7/stack_1"
  op: "Const"
  attr {
    key: "dtype"
    value {
      type: DT_INT32
    }
  }
  attr {
    key: "value"
    value {
      tensor {
        dtype: DT_INT32
        tensor_shape {
          dim {
            size: 1
          }
        }
        int_val: 3
      }
    }
  }
}
node {
  name: "dipole_charge/strided_slice_7/stack_2"
  op: "Const"
  attr {
    key: "dtype"
    value {
      type: DT_INT32
    }
  }
  attr {
    key: "value"
    value {
      tensor {
        dtype: DT_INT32
        tensor_shape {
          dim {
            size: 1
          }
        }
        int_val: 1
      }
    }
  }
}
node {
  name: "dipole_charge/strided_slice_7"
  op: "StridedSlice"
  input: "dipole_charge/t_natoms"
  input: "dipole_charge/strided_slice_7/stack"
  input: "dipole_charge/strided_slice_7/stack_1"
  input: "dipole_charge/strided_slice_7/stack_2"
  attr {
    key: "Index"
    value {
      type: DT_INT32
    }
  }
  attr {
    key: "T"
    value {
      type: DT_INT32
    }
  }
  attr {
    key: "begin_mask"
    value {
      i: 0
    }
  }
  attr {
    key: "ellipsis_mask"
    value {
      i: 0
    }
  }
  attr {
    key: "end_mask"
    value {
      i: 0
    }
  }
  attr {
    key: "new_axis_mask"
    value {
      i: 0
    }
  }
  attr {
    key: "shrink_axis_mask"
    value {
      i: 1
    }
  }
}
node {
  name: "dipole_charge/Slice/begin"
  op: "Const"
  attr {
    key: "dtype"
    value {
      type: DT_INT32
    }
  }
  attr {
    key: "value"
    value {
      tensor {
        dtype: DT_INT32
        tensor_shape {
          dim {
            size: 3
          }
        }
        tensor_content: "\000\000\000\000\000\000\000\000\000\000\000\000"
      }
    }
  }
}
node {
  name: "dipole_charge/Slice/size/0"
  op: "Const"
  attr {
    key: "dtype"
    value {
      type: DT_INT32
    }
  }
  attr {
    key: "value"
    value {
      tensor {
        dtype: DT_INT32
        tensor_shape {
        }
        int_val: -1
      }
    }
  }
}
node {
  name: "dipole_charge/Slice/size/2"
  op: "Const"
  attr {
    key: "dtype"
    value {
      type: DT_INT32
    }
  }
  attr {
    key: "value"
    value {
      tensor {
        dtype: DT_INT32
        tensor_shape {
        }
        int_val: -1
      }
    }
  }
}
node {
  name: "dipole_charge/Slice/size"
  op: "Pack"
  input: "dipole_charge/Slice/size/0"
  input: "dipole_charge/strided_slice_7"
  input: "dipole_charge/Slice/size/2"
  attr {
    key: "N"
    value {
      i: 3
    }
  }
  attr {
    key: "T"
    value {
      type: DT_INT32
    }
  }
  attr {
    key: "axis"
    value {
      i: 0
    }
  }
}
node {
  name: "dipole_charge/Slice"
  op: "Slice"
  input: "dipole_charge/Reshape_6"
  input: "dipole_charge/Slice/begin"
  input: "dipole_charge/Slice/size"
  attr {
    key: "Index"
    value {
      type: DT_INT32
    }
  }
  attr {
    key: "T"
    value {
      type: DT_DOUBLE
    }
  }
}
node {
  name: "dipole_charge/Reshape_7/shape"
  op: "Const"
  attr {
    key: "dtype"
    value {
      type: DT_INT32
    }
  }
  attr {
    key: "value"
    value {
      tensor {
        dtype: DT_INT32
        tensor_shape {
          dim {
            size: 2
          }
        }
        tensor_content: "\377\377\377\377(\002\000\000"
      }
    }
  }
}
node {
  name: "dipole_charge/Reshape_7"
  op: "Reshape"
  input: "dipole_charge/Slice"
  input: "dipole_charge/Reshape_7/shape"
  attr {
    key: "T"
    value {
      type: DT_DOUBLE
    }
  }
  attr {
    key: "Tshape"
    value {
      type: DT_INT32
    }
  }
}
node {
  name: "dipole_charge/filter_type_0/Slice/begin"
  op: "Const"
  attr {
    key: "dtype"
    value {
      type: DT_INT32
    }
  }
  attr {
    key: "value"
    value {
      tensor {
        dtype: DT_INT32
        tensor_shape {
          dim {
            size: 2
          }
        }
        tensor_content: "\000\000\000\000\000\000\000\000"
      }
    }
  }
}
node {
  name: "dipole_charge/filter_type_0/Slice/size"
  op: "Const"
  attr {
    key: "dtype"
    value {
      type: DT_INT32
    }
  }
  attr {
    key: "value"
    value {
      tensor {
        dtype: DT_INT32
        tensor_shape {
          dim {
            size: 2
          }
        }
        tensor_content: "\377\377\377\377\270\000\000\000"
      }
    }
  }
}
node {
  name: "dipole_charge/filter_type_0/Slice"
  op: "Slice"
  input: "dipole_charge/Reshape_7"
  input: "dipole_charge/filter_type_0/Slice/begin"
  input: "dipole_charge/filter_type_0/Slice/size"
  attr {
    key: "Index"
    value {
      type: DT_INT32
    }
  }
  attr {
    key: "T"
    value {
      type: DT_DOUBLE
    }
  }
}
node {
  name: "dipole_charge/filter_type_0/Shape"
  op: "Shape"
  input: "dipole_charge/filter_type_0/Slice"
  attr {
    key: "T"
    value {
      type: DT_DOUBLE
    }
  }
  attr {
    key: "out_type"
    value {
      type: DT_INT32
    }
  }
}
node {
  name: "dipole_charge/filter_type_0/strided_slice/stack"
  op: "Const"
  attr {
    key: "dtype"
    value {
      type: DT_INT32
    }
  }
  attr {
    key: "value"
    value {
      tensor {
        dtype: DT_INT32
        tensor_shape {
          dim {
            size: 1
          }
        }
        int_val: 0
      }
    }
  }
}
node {
  name: "dipole_charge/filter_type_0/strided_slice/stack_1"
  op: "Const"
  attr {
    key: "dtype"
    value {
      type: DT_INT32
    }
  }
  attr {
    key: "value"
    value {
      tensor {
        dtype: DT_INT32
        tensor_shape {
          dim {
            size: 1
          }
        }
        int_val: 1
      }
    }
  }
}
node {
  name: "dipole_charge/filter_type_0/strided_slice/stack_2"
  op: "Const"
  attr {
    key: "dtype"
    value {
      type: DT_INT32
    }
  }
  attr {
    key: "value"
    value {
      tensor {
        dtype: DT_INT32
        tensor_shape {
          dim {
            size: 1
          }
        }
        int_val: 1
      }
    }
  }
}
node {
  name: "dipole_charge/filter_type_0/strided_slice"
  op: "StridedSlice"
  input: "dipole_charge/filter_type_0/Shape"
  input: "dipole_charge/filter_type_0/strided_slice/stack"
  input: "dipole_charge/filter_type_0/strided_slice/stack_1"
  input: "dipole_charge/filter_type_0/strided_slice/stack_2"
  attr {
    key: "Index"
    value {
      type: DT_INT32
    }
  }
  attr {
    key: "T"
    value {
      type: DT_INT32
    }
  }
  attr {
    key: "begin_mask"
    value {
      i: 0
    }
  }
  attr {
    key: "ellipsis_mask"
    value {
      i: 0
    }
  }
  attr {
    key: "end_mask"
    value {
      i: 0
    }
  }
  attr {
    key: "new_axis_mask"
    value {
      i: 0
    }
  }
  attr {
    key: "shrink_axis_mask"
    value {
      i: 1
    }
  }
}
node {
  name: "dipole_charge/filter_type_0/Reshape/shape"
  op: "Const"
  attr {
    key: "dtype"
    value {
      type: DT_INT32
    }
  }
  attr {
    key: "value"
    value {
      tensor {
        dtype: DT_INT32
        tensor_shape {
          dim {
            size: 2
          }
        }
        tensor_content: "\377\377\377\377\004\000\000\000"
      }
    }
  }
}
node {
  name: "dipole_charge/filter_type_0/Reshape"
  op: "Reshape"
  input: "dipole_charge/filter_type_0/Slice"
  input: "dipole_charge/filter_type_0/Reshape/shape"
  attr {
    key: "T"
    value {
      type: DT_DOUBLE
    }
  }
  attr {
    key: "Tshape"
    value {
      type: DT_INT32
    }
  }
}
node {
  name: "dipole_charge/filter_type_0/Slice_1/begin"
  op: "Const"
  attr {
    key: "dtype"
    value {
      type: DT_INT32
    }
  }
  attr {
    key: "value"
    value {
      tensor {
        dtype: DT_INT32
        tensor_shape {
          dim {
            size: 2
          }
        }
        tensor_content: "\000\000\000\000\000\000\000\000"
      }
    }
  }
}
node {
  name: "dipole_charge/filter_type_0/Slice_1/size"
  op: "Const"
  attr {
    key: "dtype"
    value {
      type: DT_INT32
    }
  }
  attr {
    key: "value"
    value {
      tensor {
        dtype: DT_INT32
        tensor_shape {
          dim {
            size: 2
          }
        }
        tensor_content: "\377\377\377\377\001\000\000\000"
      }
    }
  }
}
node {
  name: "dipole_charge/filter_type_0/Slice_1"
  op: "Slice"
  input: "dipole_charge/filter_type_0/Reshape"
  input: "dipole_charge/filter_type_0/Slice_1/begin"
  input: "dipole_charge/filter_type_0/Slice_1/size"
  attr {
    key: "Index"
    value {
      type: DT_INT32
    }
  }
  attr {
    key: "T"
    value {
      type: DT_DOUBLE
    }
  }
}
node {
  name: "dipole_charge/filter_type_0/Reshape_1/shape"
  op: "Const"
  attr {
    key: "dtype"
    value {
      type: DT_INT32
    }
  }
  attr {
    key: "value"
    value {
      tensor {
        dtype: DT_INT32
        tensor_shape {
          dim {
            size: 2
          }
        }
        tensor_content: "\377\377\377\377\001\000\000\000"
      }
    }
  }
}
node {
  name: "dipole_charge/filter_type_0/Reshape_1"
  op: "Reshape"
  input: "dipole_charge/filter_type_0/Slice_1"
  input: "dipole_charge/filter_type_0/Reshape_1/shape"
  attr {
    key: "T"
    value {
      type: DT_DOUBLE
    }
  }
  attr {
    key: "Tshape"
    value {
      type: DT_INT32
    }
  }
}
node {
  name: "dipole_charge/filter_type_0/matrix_1_0"
  op: "Const"
  attr {
    key: "dtype"
    value {
      type: DT_DOUBLE
    }
  }
  attr {
    key: "value"
    value {
      tensor {
        dtype: DT_DOUBLE
        tensor_shape {
          dim {
            size: 1
          }
          dim {
            size: 2
          }
        }
        tensor_content: "\254\362\023I\006\244\261\277+\'z\357\345\244\340?"
      }
    }
  }
}
node {
  name: "dipole_charge/filter_type_0/matrix_1_0/read"
  op: "Identity"
  input: "dipole_charge/filter_type_0/matrix_1_0"
  attr {
    key: "T"
    value {
      type: DT_DOUBLE
    }
  }
  attr {
    key: "_class"
    value {
      list {
        s: "loc:@dipole_charge/filter_type_0/matrix_1_0"
      }
    }
  }
}
node {
  name: "dipole_charge/filter_type_0/bias_1_0"
  op: "Const"
